{
  "version": "1.0",
  "truncation": null,
  "padding": null,
  "added_tokens": [
    {
      "id": 0,
      "content": "[PAD]",
      "single_word": false,
      "lstrip": false,
      "rstrip": false,
      "normalized": false,
      "special": true
    },
    {
      "id": 1,
      "content": "[UNK]",
      "single_word": false,
      "lstrip": false,
      "rstrip": false,
      "normalized": false,
      "special": true
    },
    {
      "id": 2,
      "content": "[CLS]",
      "single_word": false,
      "lstrip": false,
      "rstrip": false,
      "normalized": false,
      "special": true
    },
    {
      "id": 3,
      "content": "[SEP]",
      "single_word": false,
      "lstrip": false,
      "rstrip": false,
      "normalized": false,
      "special": true
    },
    {
      "id": 4,
      "content": "[MASK]",
      "single_word": false,
      "lstrip": false,
      "rstrip": false,
      "normalized": false,
      "special": true
    }
  ],
  "normalizer": {
    "type": "BertNormalizer",
    "clean_text": true,
    "handle_chinese_chars": true,
    "strip_accents": null,
    "lowercase": false
  },
  "pre_tokenizer": {
    "type": "BertPreTokenizer"
  },
  "post_processor": {
    "type": "TemplateProcessing",
    "single": [
      {
        "SpecialToken": {
          "id": "[CLS]",
          "type_id": 0
        }
      },
      {
        "Sequence": {
          "id": "A",
          "type_id": 0
        }
      },
      {
        "SpecialToken": {
          "id": "[SEP]",
          "type_id": 0
        }
      }
    ],
    "pair": [
      {
        "SpecialToken": {
          "id": "[CLS]",
          "type_id": 0
        }
      },
      {
        "Sequence": {
          "id": "A",
          "type_id": 0
        }
      },
      {
        "SpecialToken": {
          "id": "[SEP]",
          "type_id": 0
        }
      },
      {
        "Sequence": {
          "id": "B",
          "type_id": 1
        }
      },
      {
        "SpecialToken": {
          "id": "[SEP]",
          "type_id": 1
        }
      }
    ],
    "special_tokens": {
      "[CLS]": {
        "id": "[CLS]",
        "ids": [
          2
        ],
        "tokens": [
          "[CLS]"
        ]
      },
      "[SEP]": {
        "id": "[SEP]",
        "ids": [
          3
        ],
        "tokens": [
          "[SEP]"
        ]
      }
    }
  },
  "decoder": {
    "type": "WordPiece",
    "prefix": "##",
    "cleanup": true
  },
  "model": {
    "type": "WordPiece",
    "unk_token": "[UNK]",
    "continuing_subword_prefix": "##",
    "max_input_chars_per_word": 100,
    "vocab": {
      "[PAD]": 0,
      "[UNK]": 1,
      "[CLS]": 2,
      "[SEP]": 3,
      "[MASK]": 4,
      "!": 5,
      "\"": 6,
      "#": 7,
      "$": 8,
      "%": 9,
      "&": 10,
      "'": 11,
      "(": 12,
      ")": 13,
      "*": 14,
      "+": 15,
      ",": 16,
      "-": 17,
      ".": 18,
      "/": 19,
      "0": 20,
      "1": 21,
      "2": 22,
      "3": 23,
      "4": 24,
      "5": 25,
      "6": 26,
      "7": 27,
      "8": 28,
      "9": 29,
      ":": 30,
      ";": 31,
      "<": 32,
      "=": 33,
      ">": 34,
      "?": 35,
      "@": 36,
      "A": 37,
      "B": 38,
      "C": 39,
      "D": 40,
      "E": 41,
      "F": 42,
      "G": 43,
      "H": 44,
      "I": 45,
      "J": 46,
      "K": 47,
      "L": 48,
      "M": 49,
      "N": 50,
      "O": 51,
      "P": 52,
      "Q": 53,
      "R": 54,
      "S": 55,
      "T": 56,
      "U": 57,
      "V": 58,
      "W": 59,
      "X": 60,
      "Y": 61,
      "Z": 62,
      "[": 63,
      "\\": 64,
      "]": 65,
      "^": 66,
      "_": 67,
      "`": 68,
      "a": 69,
      "b": 70,
      "c": 71,
      "d": 72,
      "e": 73,
      "f": 74,
      "g": 75,
      "h": 76,
      "i": 77,
      "j": 78,
      "k": 79,
      "l": 80,
      "m": 81,
      "n": 82,
      "o": 83,
      "p": 84,
      "q": 85,
      "r": 86,
      "s": 87,
      "t": 88,
      "u": 89,
      "v": 90,
      "w": 91,
      "x": 92,
      "y": 93,
      "z": 94,
      "{": 95,
      "|": 96,
      "}": 97,
      "~": 98,
      "¡": 99,
      "¢": 100,
      "£": 101,
      "¤": 102,
      "¥": 103,
      "¦": 104,
      "§": 105,
      "¨": 106,
      "©": 107,
      "ª": 108,
      "«": 109,
      "¬": 110,
      "®": 111,
      "¯": 112,
      "°": 113,
      "±": 114,
      "²": 115,
      "³": 116,
      "´": 117,
      "µ": 118,
      "¶": 119,
      "·": 120,
      "¸": 121,
      "¹": 122,
      "º": 123,
      "»": 124,
      "¼": 125,
      "½": 126,
      "¾": 127,
      "¿": 128,
      "À": 129,
      "Á": 130,
      "Â": 131,
      "Ã": 132,
      "Ä": 133,
      "Å": 134,
      "Æ": 135,
      "Ç": 136,
      "È": 137,
      "É": 138,
      "Ê": 139,
      "Ë": 140,
      "Ì": 141,
      "Í": 142,
      "Î": 143,
      "Ï": 144,
      "Ð": 145,
      "Ñ": 146,
      "Ò": 147,
      "Ó": 148,
      "Ô": 149,
      "Õ": 150,
      "Ö": 151,
      "×": 152,
      "Ø": 153,
      "Ù": 154,
      "Ú": 155,
      "Û": 156,
      "Ü": 157,
      "Ý": 158,
      "Þ": 159,
      "ß": 160,
      "à": 161,
      "á": 162,
      "â": 163,
      "ã": 164,
      "ä": 165,
      "å": 166,
      "æ": 167,
      "ç": 168,
      "è": 169,
      "é": 170,
      "ê": 171,
      "ë": 172,
      "ì": 173,
      "í": 174,
      "î": 175,
      "ï": 176,
      "ð": 177,
      "ñ": 178,
      "ò": 179,
      "ó": 180,
      "ô": 181,
      "õ": 182,
      "ö": 183,
      "÷": 184,
      "ø": 185,
      "ù": 186,
      "ú": 187,
      "û": 188,
      "ü": 189,
      "ý": 190,
      "þ": 191,
      "ÿ": 192,
      "Ā": 193,
      "ā": 194,
      "Ă": 195,
      "ă": 196,
      "ą": 197,
      "Ć": 198,
      "ć": 199,
      "Ĉ": 200,
      "ĉ": 201,
      "Č": 202,
      "č": 203,
      "Ď": 204,
      "ď": 205,
      "Đ": 206,
      "đ": 207,
      "Ē": 208,
      "ē": 209,
      "ĕ": 210,
      "Ė": 211,
      "ė": 212,
      "ę": 213,
      "Ě": 214,
      "ě": 215,
      "Ĝ": 216,
      "Ğ": 217,
      "ğ": 218,
      "Ĥ": 219,
      "ħ": 220,
      "Ĩ": 221,
      "ĩ": 222,
      "Ī": 223,
      "ī": 224,
      "Ĭ": 225,
      "ĭ": 226,
      "Į": 227,
      "į": 228,
      "İ": 229,
      "ı": 230,
      "ĳ": 231,
      "ķ": 232,
      "ĸ": 233,
      "Ĺ": 234,
      "ĺ": 235,
      "Ł": 236,
      "ł": 237,
      "Ń": 238,
      "ń": 239,
      "ņ": 240,
      "ň": 241,
      "ŋ": 242,
      "Ō": 243,
      "ō": 244,
      "ŏ": 245,
      "Ő": 246,
      "ő": 247,
      "Œ": 248,
      "œ": 249,
      "ŕ": 250,
      "Ř": 251,
      "ř": 252,
      "Ś": 253,
      "ś": 254,
      "Ŝ": 255,
      "ŝ": 256,
      "Ş": 257,
      "ş": 258,
      "Š": 259,
      "š": 260,
      "ţ": 261,
      "ť": 262,
      "Ŧ": 263,
      "ũ": 264,
      "Ū": 265,
      "ū": 266,
      "Ŭ": 267,
      "ŭ": 268,
      "ů": 269,
      "Ű": 270,
      "ű": 271,
      "ų": 272,
      "ŵ": 273,
      "Ŷ": 274,
      "ŷ": 275,
      "Ÿ": 276,
      "Ź": 277,
      "ź": 278,
      "Ż": 279,
      "ż": 280,
      "Ž": 281,
      "ž": 282,
      "ſ": 283,
      "Ƃ": 284,
      "ƃ": 285,
      "Ɖ": 286,
      "ƌ": 287,
      "ƍ": 288,
      "Ǝ": 289,
      "Ɛ": 290,
      "ƒ": 291,
      "Ɣ": 292,
      "Ƙ": 293,
      "ƙ": 294,
      "ƚ": 295,
      "ƛ": 296,
      "ƞ": 297,
      "Ɵ": 298,
      "Ơ": 299,
      "ơ": 300,
      "Ƣ": 301,
      "ƣ": 302,
      "Ƨ": 303,
      "Ʃ": 304,
      "Ƭ": 305,
      "ư": 306,
      "Ƴ": 307,
      "ƴ": 308,
      "Ƶ": 309,
      "Ʒ": 310,
      "ƺ": 311,
      "ǀ": 312,
      "ǁ": 313,
      "ǂ": 314,
      "ǃ": 315,
      "Ǆ": 316,
      "Ǉ": 317,
      "ǌ": 318,
      "ǎ": 319,
      "ǐ": 320,
      "ǒ": 321,
      "Ǔ": 322,
      "ǔ": 323,
      "ǚ": 324,
      "ǜ": 325,
      "ǧ": 326,
      "ǫ": 327,
      "ǹ": 328,
      "Ǻ": 329,
      "ǻ": 330,
      "ǽ": 331,
      "Ǿ": 332,
      "ǿ": 333,
      "ȃ": 334,
      "ȅ": 335,
      "ȇ": 336,
      "Ȉ": 337,
      "ȏ": 338,
      "Ȓ": 339,
      "ȓ": 340,
      "ȕ": 341,
      "Ȗ": 342,
      "Ș": 343,
      "ș": 344,
      "ț": 345,
      "Ȝ": 346,
      "ȝ": 347,
      "Ȟ": 348,
      "ȟ": 349,
      "Ƞ": 350,
      "Ȥ": 351,
      "Ȧ": 352,
      "ȱ": 353,
      "ȳ": 354,
      "ȹ": 355,
      "Ɂ": 356,
      "ɐ": 357,
      "ɑ": 358,
      "ɔ": 359,
      "ɖ": 360,
      "ɗ": 361,
      "ə": 362,
      "ɚ": 363,
      "ɛ": 364,
      "ɠ": 365,
      "ɡ": 366,
      "ɢ": 367,
      "ɣ": 368,
      "ɤ": 369,
      "ɥ": 370,
      "ɦ": 371,
      "ɪ": 372,
      "ɳ": 373,
      "ɵ": 374,
      "ɶ": 375,
      "ɸ": 376,
      "ɻ": 377,
      "ɾ": 378,
      "ʀ": 379,
      "ʁ": 380,
      "ʃ": 381,
      "ʈ": 382,
      "ʊ": 383,
      "ʌ": 384,
      "ʎ": 385,
      "ʏ": 386,
      "ʒ": 387,
      "ʡ": 388,
      "ʦ": 389,
      "ʧ": 390,
      "ʳ": 391,
      "ʹ": 392,
      "ʺ": 393,
      "ʻ": 394,
      "ʼ": 395,
      "ʿ": 396,
      "ˁ": 397,
      "˂": 398,
      "˃": 399,
      "ˆ": 400,
      "ˇ": 401,
      "ˈ": 402,
      "ˉ": 403,
      "ˋ": 404,
      "ˌ": 405,
      "ː": 406,
      "˒": 407,
      "˖": 408,
      "˗": 409,
      "˘": 410,
      "˙": 411,
      "˚": 412,
      "˛": 413,
      "˜": 414,
      "˝": 415,
      "˟": 416,
      "ˡ": 417,
      "ˢ": 418,
      "ˣ": 419,
      "˶": 420,
      "˽": 421,
      "̀": 422,
      "́": 423,
      "̂": 424,
      "̃": 425,
      "̄": 426,
      "̅": 427,
      "̇": 428,
      "̈": 429,
      "̉": 430,
      "̊": 431,
      "̋": 432,
      "̌": 433,
      "̒": 434,
      "̓": 435,
      "̔": 436,
      "̗": 437,
      "̛": 438,
      "̟": 439,
      "̠": 440,
      "̥": 441,
      "̦": 442,
      "̧": 443,
      "̯": 444,
      "̲": 445,
      "̴": 446,
      "̵": 447,
      "̶": 448,
      "̸": 449,
      "̹": 450,
      "̽": 451,
      "͂": 452,
      "̓": 453,
      "͌": 454,
      "͍": 455,
      "͕": 456,
      "͖": 457,
      "͘": 458,
      "͛": 459,
      "͜": 460,
      "͞": 461,
      "͢": 462,
      "ͣ": 463,
      "ͦ": 464,
      "ͨ": 465,
      "ͫ": 466,
      "ͬ": 467,
      "ͭ": 468,
      "Ͳ": 469,
      "ͳ": 470,
      "͵": 471,
      "Ͷ": 472,
      "ͷ": 473,
      "͸": 474,
      "͹": 475,
      "ͺ": 476,
      ";": 477,
      "Ϳ": 478,
      "΄": 479,
      "΅": 480,
      "·": 481,
      "Ύ": 482,
      "Ώ": 483,
      "ΐ": 484,
      "Α": 485,
      "Β": 486,
      "Γ": 487,
      "Δ": 488,
      "Ε": 489,
      "Ζ": 490,
      "Η": 491,
      "Θ": 492,
      "Ι": 493,
      "Κ": 494,
      "Λ": 495,
      "Μ": 496,
      "Ν": 497,
      "Ξ": 498,
      "Ο": 499,
      "Π": 500,
      "Ρ": 501,
      "Σ": 502,
      "Τ": 503,
      "Υ": 504,
      "Φ": 505,
      "Χ": 506,
      "Ψ": 507,
      "Ω": 508,
      "ά": 509,
      "έ": 510,
      "ή": 511,
      "ί": 512,
      "ΰ": 513,
      "α": 514,
      "β": 515,
      "γ": 516,
      "δ": 517,
      "ε": 518,
      "ζ": 519,
      "η": 520,
      "θ": 521,
      "ι": 522,
      "κ": 523,
      "λ": 524,
      "μ": 525,
      "ν": 526,
      "ξ": 527,
      "ο": 528,
      "π": 529,
      "ρ": 530,
      "ς": 531,
      "σ": 532,
      "τ": 533,
      "υ": 534,
      "φ": 535,
      "χ": 536,
      "ψ": 537,
      "ω": 538,
      "ϊ": 539,
      "ϋ": 540,
      "ό": 541,
      "ύ": 542,
      "ώ": 543,
      "ϐ": 544,
      "ϑ": 545,
      "ϒ": 546,
      "ϕ": 547,
      "ϖ": 548,
      "Ϫ": 549,
      "Ϭ": 550,
      "ϭ": 551,
      "Ϯ": 552,
      "ϯ": 553,
      "ϰ": 554,
      "ϱ": 555,
      "ϲ": 556,
      "ϳ": 557,
      "ϵ": 558,
      "Є": 559,
      "І": 560,
      "Ї": 561,
      "Љ": 562,
      "Ћ": 563,
      "Ќ": 564,
      "А": 565,
      "Б": 566,
      "В": 567,
      "Г": 568,
      "Д": 569,
      "Е": 570,
      "И": 571,
      "К": 572,
      "Л": 573,
      "М": 574,
      "Н": 575,
      "О": 576,
      "П": 577,
      "Р": 578,
      "С": 579,
      "Т": 580,
      "Ф": 581,
      "Х": 582,
      "Ш": 583,
      "Щ": 584,
      "Ъ": 585,
      "Ь": 586,
      "Э": 587,
      "Ю": 588,
      "Я": 589,
      "а": 590,
      "б": 591,
      "в": 592,
      "г": 593,
      "д": 594,
      "е": 595,
      "ж": 596,
      "з": 597,
      "и": 598,
      "й": 599,
      "к": 600,
      "л": 601,
      "м": 602,
      "н": 603,
      "о": 604,
      "п": 605,
      "р": 606,
      "с": 607,
      "т": 608,
      "у": 609,
      "ф": 610,
      "х": 611,
      "ц": 612,
      "ч": 613,
      "ш": 614,
      "щ": 615,
      "ы": 616,
      "ь": 617,
      "э": 618,
      "ю": 619,
      "я": 620,
      "ё": 621,
      "є": 622,
      "і": 623,
      "ї": 624,
      "ј": 625,
      "њ": 626,
      "ў": 627,
      "џ": 628,
      "Ѣ": 629,
      "Ѳ": 630,
      "Ѵ": 631,
      "ҏ": 632,
      "қ": 633,
      "ҫ": 634,
      "ү": 635,
      "Ҿ": 636,
      "ӑ": 637,
      "Ӓ": 638,
      "Ӕ": 639,
      "ӕ": 640,
      "ӧ": 641,
      "Ө": 642,
      "ӱ": 643,
      "ӳ": 644,
      "ӿ": 645,
      "ր": 646,
      "ց": 647,
      "֞": 648,
      "֠": 649,
      "֦": 650,
      "ּ": 651,
      "־": 652,
      "ֿ": 653,
      "׀": 654,
      "ׅ": 655,
      "׋": 656,
      "א": 657,
      "ב": 658,
      "ח": 659,
      "י": 660,
      "ל": 661,
      "מ": 662,
      "ש": 663,
      "ת": 664,
      "،": 665,
      "ؘ": 666,
      "؟": 667,
      "ء": 668,
      "آ": 669,
      "أ": 670,
      "ؤ": 671,
      "ئ": 672,
      "ا": 673,
      "ب": 674,
      "ة": 675,
      "ت": 676,
      "ث": 677,
      "ج": 678,
      "ح": 679,
      "خ": 680,
      "د": 681,
      "ذ": 682,
      "ر": 683,
      "ز": 684,
      "س": 685,
      "ش": 686,
      "ص": 687,
      "ط": 688,
      "ع": 689,
      "غ": 690,
      "ـ": 691,
      "ف": 692,
      "ق": 693,
      "ك": 694,
      "ل": 695,
      "م": 696,
      "ن": 697,
      "ه": 698,
      "و": 699,
      "ى": 700,
      "ي": 701,
      "ً": 702,
      "ِ": 703,
      "٠": 704,
      "٧": 705,
      "٭": 706,
      "ٰ": 707,
      "ٲ": 708,
      "ڰ": 709,
      "ۢ": 710,
      "ܤ": 711,
      "ܰ": 712,
      "݅": 713,
      "ݎ": 714,
      "ݏ": 715,
      "ݐ": 716,
      "ݔ": 717,
      "ݕ": 718,
      "ݬ": 719,
      "ࡎ": 720,
      "ड": 721,
      "न": 722,
      "ऴ": 723,
      "ा": 724,
      "ि": 725,
      "॔": 726,
      "দ": 727,
      "ব": 728,
      "র": 729,
      "ষ": 730,
      "া": 731,
      "ি": 732,
      "ে": 733,
      "্": 734,
      "য়": 735,
      "଴": 736,
      "ଵ": 737,
      "ଶ": 738,
      "ହ": 739,
      "଼": 740,
      "ଽ": 741,
      "ା": 742,
      "ି": 743,
      "ୀ": 744,
      "୙": 745,
      "ୟ": 746,
      "ୢ": 747,
      "ୣ": 748,
      "୥": 749,
      "୩": 750,
      "୪": 751,
      "୫": 752,
      "୬": 753,
      "୭": 754,
      "୰": 755,
      "ୱ": 756,
      "஺": 757,
      "஼": 758,
      "஽": 759,
      "ா": 760,
      "ீ": 761,
      "ு": 762,
      "ூ": 763,
      "௄": 764,
      "ெ": 765,
      "ே": 766,
      "ை": 767,
      "ோ": 768,
      "ௌ": 769,
      "்": 770,
      "௎": 771,
      "ௐ": 772,
      "௓": 773,
      "௔": 774,
      "௖": 775,
      "ௗ": 776,
      "௘": 777,
      "௚": 778,
      "௛": 779,
      "௜": 780,
      "௟": 781,
      "௠": 782,
      "௡": 783,
      "௢": 784,
      "௥": 785,
      "௦": 786,
      "௧": 787,
      "௨": 788,
      "௩": 789,
      "௫": 790,
      "௱": 791,
      "ఈ": 792,
      "ఉ": 793,
      "ఘ": 794,
      "భ": 795,
      "మ": 796,
      "య": 797,
      "ర": 798,
      "శ": 799,
      "ష": 800,
      "స": 801,
      "ಳ": 802,
      "಴": 803,
      "ವ": 804,
      "ಸ": 805,
      "ಹ": 806,
      "಼": 807,
      "ಿ": 808,
      "ು": 809,
      "ೃ": 810,
      "ೄ": 811,
      "ೋ": 812,
      "ೌ": 813,
      "೏": 814,
      "೐": 815,
      "೒": 816,
      "೓": 817,
      "೔": 818,
      "೗": 819,
      "೘": 820,
      "೙": 821,
      "೚": 822,
      "೜": 823,
      "ೝ": 824,
      "೟": 825,
      "ೠ": 826,
      "ഀ": 827,
      "ഁ": 828,
      "ൈ": 829,
      "ൣ": 830,
      "൧": 831,
      "൫": 832,
      "൬": 833,
      "൯": 834,
      "൰": 835,
      "ඥ": 836,
      "ට": 837,
      "ෑ": 838,
      "෩": 839,
      "฀": 840,
      "ฆ": 841,
      "น": 842,
      "บ": 843,
      "ส": 844,
      "ิ": 845,
      "เ": 846,
      "ใ": 847,
      "้": 848,
      "໿": 849,
      "ሺ": 850,
      "ሻ": 851,
      "ቀ": 852,
      "ቁ": 853,
      "ቄ": 854,
      "ቆ": 855,
      "ቇ": 856,
      "ᴓ": 857,
      "ᴠ": 858,
      "ᴧ": 859,
      "ᴨ": 860,
      "ᵃ": 861,
      "ᵅ": 862,
      "ᵇ": 863,
      "ᵈ": 864,
      "ᵉ": 865,
      "ᵏ": 866,
      "ᵒ": 867,
      "ᵖ": 868,
      "ᵞ": 869,
      "ᵡ": 870,
      "ᵥ": 871,
      "ᵪ": 872,
      "ᵸ": 873,
      "ᶜ": 874,
      "ᶠ": 875,
      "ᶢ": 876,
      "ᶦ": 877,
      "ᶨ": 878,
      "ᶫ": 879,
      "ᶬ": 880,
      "ᶰ": 881,
      "ḉ": 882,
      "Ḋ": 883,
      "ḗ": 884,
      "Ḥ": 885,
      "ḥ": 886,
      "ḱ": 887,
      "ḵ": 888,
      "ṓ": 889,
      "Ṣ": 890,
      "ṣ": 891,
      "ṭ": 892,
      "ṯ": 893,
      "ẋ": 894,
      "ẞ": 895,
      "ạ": 896,
      "ả": 897,
      "ấ": 898,
      "ẵ": 899,
      "ẹ": 900,
      "ẽ": 901,
      "Ế": 902,
      "ế": 903,
      "ễ": 904,
      "ệ": 905,
      "ọ": 906,
      "ỏ": 907,
      "ố": 908,
      "ồ": 909,
      "ộ": 910,
      "ờ": 911,
      "ợ": 912,
      "ủ": 913,
      "ử": 914,
      "ữ": 915,
      "ỳ": 916,
      "ἀ": 917,
      "ἁ": 918,
      "ἄ": 919,
      "ἅ": 920,
      "Ἁ": 921,
      "ἐ": 922,
      "ἑ": 923,
      "ἔ": 924,
      "ἕ": 925,
      "Ἔ": 926,
      "ἠ": 927,
      "ἡ": 928,
      "ἢ": 929,
      "ἤ": 930,
      "ἥ": 931,
      "ἦ": 932,
      "ἧ": 933,
      "Ἡ": 934,
      "ἰ": 935,
      "ἱ": 936,
      "ἴ": 937,
      "ἵ": 938,
      "ἶ": 939,
      "ἷ": 940,
      "Ἰ": 941,
      "ὀ": 942,
      "ὁ": 943,
      "ὂ": 944,
      "ὄ": 945,
      "ὅ": 946,
      "Ὁ": 947,
      "ὐ": 948,
      "ὑ": 949,
      "ὕ": 950,
      "ὗ": 951,
      "ὡ": 952,
      "ὥ": 953,
      "ὦ": 954,
      "ὰ": 955,
      "ά": 956,
      "ὲ": 957,
      "έ": 958,
      "ὴ": 959,
      "ὶ": 960,
      "ί": 961,
      "ὸ": 962,
      "ό": 963,
      "ᾠ": 964,
      "ᾰ": 965,
      "ᾱ": 966,
      "ᾶ": 967,
      "᾽": 968,
      "᾿": 969,
      "ῆ": 970,
      "ῑ": 971,
      "ῖ": 972,
      "ῤ": 973,
      "ῥ": 974,
      "ῦ": 975,
      "ῲ": 976,
      "ῳ": 977,
      "ῶ": 978,
      "ῷ": 979,
      "‐": 980,
      "‑": 981,
      "‒": 982,
      "–": 983,
      "—": 984,
      "―": 985,
      "‖": 986,
      "‗": 987,
      "‘": 988,
      "’": 989,
      "‚": 990,
      "‛": 991,
      "“": 992,
      "”": 993,
      "„": 994,
      "‟": 995,
      "†": 996,
      "‡": 997,
      "•": 998,
      "‣": 999,
      "‥": 1000,
      "…": 1001,
      "‰": 1002,
      "′": 1003,
      "″": 1004,
      "‴": 1005,
      "‵": 1006,
      "‹": 1007,
      "›": 1008,
      "‼": 1009,
      "‾": 1010,
      "⁀": 1011,
      "⁁": 1012,
      "⁃": 1013,
      "⁄": 1014,
      "⁎": 1015,
      "⁞": 1016,
      "⁥": 1017,
      "⁰": 1018,
      "ⁱ": 1019,
      "⁴": 1020,
      "⁵": 1021,
      "⁶": 1022,
      "⁷": 1023,
      "⁸": 1024,
      "⁹": 1025,
      "⁺": 1026,
      "⁻": 1027,
      "ⁿ": 1028,
      "₀": 1029,
      "₁": 1030,
      "₂": 1031,
      "₃": 1032,
      "₄": 1033,
      "₅": 1034,
      "₆": 1035,
      "₈": 1036,
      "₊": 1037,
      "ₐ": 1038,
      "ₑ": 1039,
      "ₒ": 1040,
      "₡": 1041,
      "₤": 1042,
      "₪": 1043,
      "€": 1044,
      "₲": 1045,
      "₸": 1046,
      "⃗": 1047,
      "⃛": 1048,
      "⃝": 1049,
      "⃞": 1050,
      "⃠": 1051,
      "⃬": 1052,
      "⃰": 1053,
      "℃": 1054,
      "℅": 1055,
      "ℎ": 1056,
      "ℑ": 1057,
      "ℓ": 1058,
      "№": 1059,
      "℗": 1060,
      "ℜ": 1061,
      "™": 1062,
      "Ω": 1063,
      "ℵ": 1064,
      "⅓": 1065,
      "⅔": 1066,
      "⅕": 1067,
      "⅖": 1068,
      "⅗": 1069,
      "⅘": 1070,
      "⅙": 1071,
      "⅚": 1072,
      "⅛": 1073,
      "⅜": 1074,
      "⅝": 1075,
      "⅞": 1076,
      "Ⅰ": 1077,
      "Ⅱ": 1078,
      "Ⅲ": 1079,
      "Ⅳ": 1080,
      "Ⅴ": 1081,
      "←": 1082,
      "↑": 1083,
      "→": 1084,
      "↓": 1085,
      "↔": 1086,
      "↕": 1087,
      "↖": 1088,
      "↗": 1089,
      "↘": 1090,
      "↙": 1091,
      "↦": 1092,
      "↧": 1093,
      "↨": 1094,
      "↪": 1095,
      "↱": 1096,
      "↳": 1097,
      "↵": 1098,
      "↷": 1099,
      "⇄": 1100,
      "⇅": 1101,
      "⇆": 1102,
      "⇈": 1103,
      "⇊": 1104,
      "⇋": 1105,
      "⇌": 1106,
      "⇐": 1107,
      "⇑": 1108,
      "⇒": 1109,
      "⇓": 1110,
      "⇔": 1111,
      "⇗": 1112,
      "⇛": 1113,
      "⇠": 1114,
      "⇢": 1115,
      "⇤": 1116,
      "⇥": 1117,
      "⇦": 1118,
      "⇧": 1119,
      "⇨": 1120,
      "⇩": 1121,
      "∀": 1122,
      "∂": 1123,
      "∃": 1124,
      "∅": 1125,
      "∆": 1126,
      "∇": 1127,
      "∈": 1128,
      "∊": 1129,
      "∎": 1130,
      "∏": 1131,
      "∑": 1132,
      "−": 1133,
      "∓": 1134,
      "∕": 1135,
      "∗": 1136,
      "∘": 1137,
      "∙": 1138,
      "√": 1139,
      "∝": 1140,
      "∞": 1141,
      "∟": 1142,
      "∠": 1143,
      "∡": 1144,
      "∢": 1145,
      "∣": 1146,
      "∧": 1147,
      "∨": 1148,
      "∩": 1149,
      "∪": 1150,
      "∫": 1151,
      "∭": 1152,
      "∮": 1153,
      "∴": 1154,
      "∶": 1155,
      "∼": 1156,
      "∽": 1157,
      "∿": 1158,
      "≀": 1159,
      "≃": 1160,
      "≅": 1161,
      "≈": 1162,
      "≉": 1163,
      "≍": 1164,
      "≔": 1165,
      "≖": 1166,
      "≘": 1167,
      "≙": 1168,
      "≜": 1169,
      "≠": 1170,
      "≡": 1171,
      "≤": 1172,
      "≥": 1173,
      "≦": 1174,
      "≧": 1175,
      "≪": 1176,
      "≫": 1177,
      "≽": 1178,
      "⊃": 1179,
      "⊆": 1180,
      "⊇": 1181,
      "⊕": 1182,
      "⊖": 1183,
      "⊗": 1184,
      "⊘": 1185,
      "⊙": 1186,
      "⊚": 1187,
      "⊝": 1188,
      "⊟": 1189,
      "⊠": 1190,
      "⊡": 1191,
      "⊢": 1192,
      "⊣": 1193,
      "⊥": 1194,
      "⊲": 1195,
      "⊳": 1196,
      "⊶": 1197,
      "⊽": 1198,
      "⋄": 1199,
      "⋅": 1200,
      "⋆": 1201,
      "⋏": 1202,
      "⋘": 1203,
      "⋮": 1204,
      "⋯": 1205,
      "⋱": 1206,
      "⌀": 1207,
      "⌈": 1208,
      "⌊": 1209,
      "⌛": 1210,
      "⌧": 1211,
      "〈": 1212,
      "〉": 1213,
      "⍺": 1214,
      "⎕": 1215,
      "⎛": 1216,
      "⎜": 1217,
      "⎝": 1218,
      "⎞": 1219,
      "⎟": 1220,
      "⎠": 1221,
      "⎡": 1222,
      "⎢": 1223,
      "⎣": 1224,
      "⎤": 1225,
      "⎥": 1226,
      "⎦": 1227,
      "⎮": 1228,
      "⎯": 1229,
      "⎷": 1230,
      "⏐": 1231,
      "⏟": 1232,
      "␣": 1233,
      "①": 1234,
      "②": 1235,
      "③": 1236,
      "④": 1237,
      "⑤": 1238,
      "⑥": 1239,
      "⑦": 1240,
      "⑧": 1241,
      "⑨": 1242,
      "⑩": 1243,
      "⑪": 1244,
      "⑫": 1245,
      "⑬": 1246,
      "⑭": 1247,
      "⑮": 1248,
      "⑯": 1249,
      "⑰": 1250,
      "⑱": 1251,
      "⑲": 1252,
      "⑳": 1253,
      "Ⓡ": 1254,
      "ⓒ": 1255,
      "⓪": 1256,
      "─": 1257,
      "│": 1258,
      "┌": 1259,
      "┐": 1260,
      "└": 1261,
      "┘": 1262,
      "├": 1263,
      "┤": 1264,
      "┬": 1265,
      "┴": 1266,
      "┼": 1267,
      "═": 1268,
      "╫": 1269,
      "▀": 1270,
      "▂": 1271,
      "▃": 1272,
      "▄": 1273,
      "█": 1274,
      "░": 1275,
      "▒": 1276,
      "▓": 1277,
      "■": 1278,
      "□": 1279,
      "▢": 1280,
      "▦": 1281,
      "▪": 1282,
      "▫": 1283,
      "▬": 1284,
      "▭": 1285,
      "▮": 1286,
      "▲": 1287,
      "△": 1288,
      "▴": 1289,
      "▵": 1290,
      "▶": 1291,
      "▷": 1292,
      "▸": 1293,
      "▹": 1294,
      "►": 1295,
      "▻": 1296,
      "▼": 1297,
      "▽": 1298,
      "▾": 1299,
      "▿": 1300,
      "◀": 1301,
      "◁": 1302,
      "◂": 1303,
      "◃": 1304,
      "◄": 1305,
      "◆": 1306,
      "◉": 1307,
      "◊": 1308,
      "○": 1309,
      "◌": 1310,
      "◍": 1311,
      "●": 1312,
      "◐": 1313,
      "◑": 1314,
      "◔": 1315,
      "◕": 1316,
      "◗": 1317,
      "◘": 1318,
      "◦": 1319,
      "◭": 1320,
      "◯": 1321,
      "◼": 1322,
      "☃": 1323,
      "★": 1324,
      "☆": 1325,
      "☐": 1326,
      "☑": 1327,
      "☒": 1328,
      "☛": 1329,
      "☝": 1330,
      "☞": 1331,
      "☨": 1332,
      "☯": 1333,
      "☰": 1334,
      "☵": 1335,
      "☹": 1336,
      "☺": 1337,
      "☼": 1338,
      "☾": 1339,
      "♀": 1340,
      "♂": 1341,
      "♠": 1342,
      "♡": 1343,
      "♢": 1344,
      "♣": 1345,
      "♥": 1346,
      "♦": 1347,
      "♩": 1348,
      "♯": 1349,
      "⚉": 1350,
      "⚠": 1351,
      "⚥": 1352,
      "⚦": 1353,
      "⚽": 1354,
      "✁": 1355,
      "✂": 1356,
      "✄": 1357,
      "✅": 1358,
      "✇": 1359,
      "✈": 1360,
      "✉": 1361,
      "✌": 1362,
      "✍": 1363,
      "✎": 1364,
      "✐": 1365,
      "✓": 1366,
      "✔": 1367,
      "✕": 1368,
      "✖": 1369,
      "✗": 1370,
      "✘": 1371,
      "✚": 1372,
      "✛": 1373,
      "✝": 1374,
      "✞": 1375,
      "✟": 1376,
      "✦": 1377,
      "✧": 1378,
      "✩": 1379,
      "✫": 1380,
      "✮": 1381,
      "✰": 1382,
      "✱": 1383,
      "✲": 1384,
      "✳": 1385,
      "✴": 1386,
      "✶": 1387,
      "✷": 1388,
      "✸": 1389,
      "✹": 1390,
      "✺": 1391,
      "✻": 1392,
      "✼": 1393,
      "✽": 1394,
      "❆": 1395,
      "❇": 1396,
      "❉": 1397,
      "❊": 1398,
      "❋": 1399,
      "❍": 1400,
      "❏": 1401,
      "❑": 1402,
      "❒": 1403,
      "❔": 1404,
      "❖": 1405,
      "❙": 1406,
      "❚": 1407,
      "❛": 1408,
      "❜": 1409,
      "❝": 1410,
      "❞": 1411,
      "❡": 1412,
      "❢": 1413,
      "❣": 1414,
      "❤": 1415,
      "❦": 1416,
      "❧": 1417,
      "❩": 1418,
      "❯": 1419,
      "❶": 1420,
      "❷": 1421,
      "❸": 1422,
      "❹": 1423,
      "❺": 1424,
      "➀": 1425,
      "➁": 1426,
      "➂": 1427,
      "➃": 1428,
      "➄": 1429,
      "➅": 1430,
      "➆": 1431,
      "➇": 1432,
      "➈": 1433,
      "➉": 1434,
      "➊": 1435,
      "➋": 1436,
      "➌": 1437,
      "➔": 1438,
      "➙": 1439,
      "➛": 1440,
      "➜": 1441,
      "➝": 1442,
      "➞": 1443,
      "➟": 1444,
      "➠": 1445,
      "➢": 1446,
      "➣": 1447,
      "➤": 1448,
      "➧": 1449,
      "➨": 1450,
      "➩": 1451,
      "➭": 1452,
      "➯": 1453,
      "➱": 1454,
      "➲": 1455,
      "➻": 1456,
      "➾": 1457,
      "⟡": 1458,
      "⟵": 1459,
      "⟶": 1460,
      "⟹": 1461,
      "⧁": 1462,
      "⧍": 1463,
      "⧜": 1464,
      "⧫": 1465,
      "⨁": 1466,
      "⨉": 1467,
      "⩺": 1468,
      "⩽": 1469,
      "⩾": 1470,
      "⫻": 1471,
      "⬆": 1472,
      "⬇": 1473,
      "⬜": 1474,
      "⭢": 1475,
      "⮞": 1476,
      "⸦": 1477,
      "⸧": 1478,
      "、": 1479,
      "。": 1480,
      "〈": 1481,
      "〉": 1482,
      "《": 1483,
      "》": 1484,
      "〔": 1485,
      "〕": 1486,
      "〜": 1487,
      "う": 1488,
      "お": 1489,
      "が": 1490,
      "く": 1491,
      "け": 1492,
      "し": 1493,
      "た": 1494,
      "な": 1495,
      "に": 1496,
      "ぬ": 1497,
      "の": 1498,
      "ま": 1499,
      "も": 1500,
      "や": 1501,
      "り": 1502,
      "る": 1503,
      "わ": 1504,
      "エ": 1505,
      "ク": 1506,
      "ケ": 1507,
      "ス": 1508,
      "ッ": 1509,
      "ニ": 1510,
      "プ": 1511,
      "メ": 1512,
      "ラ": 1513,
      "リ": 1514,
      "ン": 1515,
      "・": 1516,
      "㎡": 1517,
      "㱡": 1518,
      "䀀": 1519,
      "一": 1520,
      "丁": 1521,
      "七": 1522,
      "三": 1523,
      "上": 1524,
      "下": 1525,
      "不": 1526,
      "与": 1527,
      "丕": 1528,
      "世": 1529,
      "业": 1530,
      "丛": 1531,
      "东": 1532,
      "丢": 1533,
      "两": 1534,
      "个": 1535,
      "中": 1536,
      "临": 1537,
      "丸": 1538,
      "丹": 1539,
      "为": 1540,
      "主": 1541,
      "乃": 1542,
      "久": 1543,
      "义": 1544,
      "之": 1545,
      "乌": 1546,
      "乏": 1547,
      "乐": 1548,
      "乔": 1549,
      "乘": 1550,
      "乙": 1551,
      "九": 1552,
      "也": 1553,
      "乡": 1554,
      "书": 1555,
      "乱": 1556,
      "乳": 1557,
      "亂": 1558,
      "了": 1559,
      "争": 1560,
      "事": 1561,
      "二": 1562,
      "亏": 1563,
      "云": 1564,
      "五": 1565,
      "井": 1566,
      "亚": 1567,
      "交": 1568,
      "亥": 1569,
      "亦": 1570,
      "亨": 1571,
      "享": 1572,
      "京": 1573,
      "亭": 1574,
      "人": 1575,
      "仁": 1576,
      "今": 1577,
      "介": 1578,
      "仓": 1579,
      "仙": 1580,
      "代": 1581,
      "令": 1582,
      "以": 1583,
      "仰": 1584,
      "仲": 1585,
      "价": 1586,
      "任": 1587,
      "企": 1588,
      "伏": 1589,
      "众": 1590,
      "会": 1591,
      "伟": 1592,
      "传": 1593,
      "伤": 1594,
      "伯": 1595,
      "伸": 1596,
      "似": 1597,
      "但": 1598,
      "位": 1599,
      "佐": 1600,
      "佑": 1601,
      "体": 1602,
      "何": 1603,
      "佗": 1604,
      "余": 1605,
      "作": 1606,
      "佳": 1607,
      "使": 1608,
      "侄": 1609,
      "來": 1610,
      "例": 1611,
      "依": 1612,
      "侠": 1613,
      "侮": 1614,
      "侯": 1615,
      "侵": 1616,
      "便": 1617,
      "俛": 1618,
      "保": 1619,
      "俞": 1620,
      "信": 1621,
      "修": 1622,
      "倉": 1623,
      "個": 1624,
      "倍": 1625,
      "候": 1626,
      "偏": 1627,
      "停": 1628,
      "健": 1629,
      "偶": 1630,
      "傑": 1631,
      "備": 1632,
      "傳": 1633,
      "傷": 1634,
      "僕": 1635,
      "儿": 1636,
      "元": 1637,
      "先": 1638,
      "光": 1639,
      "克": 1640,
      "兑": 1641,
      "兒": 1642,
      "党": 1643,
      "入": 1644,
      "內": 1645,
      "全": 1646,
      "兩": 1647,
      "八": 1648,
      "公": 1649,
      "六": 1650,
      "共": 1651,
      "关": 1652,
      "兴": 1653,
      "其": 1654,
      "具": 1655,
      "典": 1656,
      "养": 1657,
      "兼": 1658,
      "冀": 1659,
      "内": 1660,
      "再": 1661,
      "农": 1662,
      "冬": 1663,
      "冲": 1664,
      "况": 1665,
      "冷": 1666,
      "净": 1667,
      "准": 1668,
      "凉": 1669,
      "凡": 1670,
      "出": 1671,
      "刀": 1672,
      "分": 1673,
      "切": 1674,
      "划": 1675,
      "列": 1676,
      "刘": 1677,
      "创": 1678,
      "初": 1679,
      "別": 1680,
      "利": 1681,
      "别": 1682,
      "刮": 1683,
      "到": 1684,
      "制": 1685,
      "刺": 1686,
      "剂": 1687,
      "則": 1688,
      "前": 1689,
      "割": 1690,
      "劃": 1691,
      "劇": 1692,
      "劉": 1693,
      "劑": 1694,
      "力": 1695,
      "办": 1696,
      "功": 1697,
      "加": 1698,
      "务": 1699,
      "劣": 1700,
      "动": 1701,
      "助": 1702,
      "劫": 1703,
      "励": 1704,
      "劳": 1705,
      "勃": 1706,
      "動": 1707,
      "務": 1708,
      "勝": 1709,
      "勞": 1710,
      "募": 1711,
      "勢": 1712,
      "勿": 1713,
      "包": 1714,
      "匈": 1715,
      "化": 1716,
      "北": 1717,
      "匮": 1718,
      "匱": 1719,
      "区": 1720,
      "医": 1721,
      "十": 1722,
      "千": 1723,
      "升": 1724,
      "午": 1725,
      "半": 1726,
      "华": 1727,
      "协": 1728,
      "卑": 1729,
      "卒": 1730,
      "卓": 1731,
      "協": 1732,
      "单": 1733,
      "南": 1734,
      "博": 1735,
      "卤": 1736,
      "卦": 1737,
      "卫": 1738,
      "印": 1739,
      "危": 1740,
      "即": 1741,
      "卷": 1742,
      "卻": 1743,
      "卿": 1744,
      "历": 1745,
      "厉": 1746,
      "压": 1747,
      "厚": 1748,
      "原": 1749,
      "厥": 1750,
      "去": 1751,
      "县": 1752,
      "参": 1753,
      "參": 1754,
      "又": 1755,
      "及": 1756,
      "双": 1757,
      "反": 1758,
      "发": 1759,
      "叔": 1760,
      "取": 1761,
      "受": 1762,
      "口": 1763,
      "古": 1764,
      "叩": 1765,
      "可": 1766,
      "台": 1767,
      "史": 1768,
      "叶": 1769,
      "各": 1770,
      "合": 1771,
      "同": 1772,
      "名": 1773,
      "后": 1774,
      "吐": 1775,
      "吕": 1776,
      "君": 1777,
      "否": 1778,
      "听": 1779,
      "启": 1780,
      "吳": 1781,
      "吴": 1782,
      "吾": 1783,
      "呆": 1784,
      "告": 1785,
      "员": 1786,
      "周": 1787,
      "味": 1788,
      "命": 1789,
      "和": 1790,
      "咒": 1791,
      "咨": 1792,
      "咳": 1793,
      "咽": 1794,
      "哀": 1795,
      "品": 1796,
      "响": 1797,
      "哑": 1798,
      "哮": 1799,
      "唇": 1800,
      "唐": 1801,
      "唾": 1802,
      "商": 1803,
      "問": 1804,
      "善": 1805,
      "喉": 1806,
      "喑": 1807,
      "喘": 1808,
      "喜": 1809,
      "單": 1810,
      "嗽": 1811,
      "嘉": 1812,
      "嘔": 1813,
      "嘗": 1814,
      "噉": 1815,
      "噎": 1816,
      "器": 1817,
      "嚴": 1818,
      "四": 1819,
      "回": 1820,
      "因": 1821,
      "园": 1822,
      "围": 1823,
      "固": 1824,
      "国": 1825,
      "图": 1826,
      "圆": 1827,
      "國": 1828,
      "圖": 1829,
      "土": 1830,
      "圣": 1831,
      "在": 1832,
      "圭": 1833,
      "地": 1834,
      "场": 1835,
      "坐": 1836,
      "块": 1837,
      "坚": 1838,
      "坛": 1839,
      "坡": 1840,
      "坤": 1841,
      "型": 1842,
      "垣": 1843,
      "培": 1844,
      "基": 1845,
      "堂": 1846,
      "堅": 1847,
      "堆": 1848,
      "堪": 1849,
      "報": 1850,
      "堵": 1851,
      "塞": 1852,
      "塾": 1853,
      "境": 1854,
      "墓": 1855,
      "增": 1856,
      "壅": 1857,
      "士": 1858,
      "壳": 1859,
      "壽": 1860,
      "复": 1861,
      "夏": 1862,
      "外": 1863,
      "多": 1864,
      "夜": 1865,
      "夢": 1866,
      "大": 1867,
      "天": 1868,
      "太": 1869,
      "夫": 1870,
      "失": 1871,
      "头": 1872,
      "夹": 1873,
      "奇": 1874,
      "奈": 1875,
      "奉": 1876,
      "奔": 1877,
      "套": 1878,
      "女": 1879,
      "奴": 1880,
      "好": 1881,
      "如": 1882,
      "妄": 1883,
      "姆": 1884,
      "姊": 1885,
      "始": 1886,
      "委": 1887,
      "姜": 1888,
      "娱": 1889,
      "婦": 1890,
      "子": 1891,
      "孔": 1892,
      "孕": 1893,
      "字": 1894,
      "存": 1895,
      "孙": 1896,
      "孝": 1897,
      "孟": 1898,
      "季": 1899,
      "学": 1900,
      "孩": 1901,
      "孫": 1902,
      "學": 1903,
      "宁": 1904,
      "它": 1905,
      "守": 1906,
      "安": 1907,
      "宋": 1908,
      "宗": 1909,
      "官": 1910,
      "定": 1911,
      "宜": 1912,
      "宝": 1913,
      "客": 1914,
      "宣": 1915,
      "室": 1916,
      "宫": 1917,
      "宮": 1918,
      "家": 1919,
      "宾": 1920,
      "宿": 1921,
      "寄": 1922,
      "寒": 1923,
      "實": 1924,
      "審": 1925,
      "寫": 1926,
      "寬": 1927,
      "寶": 1928,
      "寸": 1929,
      "对": 1930,
      "寺": 1931,
      "寻": 1932,
      "导": 1933,
      "將": 1934,
      "專": 1935,
      "尊": 1936,
      "尋": 1937,
      "導": 1938,
      "小": 1939,
      "少": 1940,
      "尖": 1941,
      "尚": 1942,
      "尫": 1943,
      "就": 1944,
      "尹": 1945,
      "尺": 1946,
      "尽": 1947,
      "尾": 1948,
      "局": 1949,
      "层": 1950,
      "居": 1951,
      "屈": 1952,
      "屋": 1953,
      "屏": 1954,
      "屑": 1955,
      "展": 1956,
      "山": 1957,
      "岐": 1958,
      "岗": 1959,
      "岩": 1960,
      "岭": 1961,
      "岳": 1962,
      "峰": 1963,
      "峻": 1964,
      "崩": 1965,
      "川": 1966,
      "州": 1967,
      "巢": 1968,
      "工": 1969,
      "左": 1970,
      "巨": 1971,
      "差": 1972,
      "己": 1973,
      "已": 1974,
      "市": 1975,
      "布": 1976,
      "师": 1977,
      "希": 1978,
      "帔": 1979,
      "帖": 1980,
      "帛": 1981,
      "帝": 1982,
      "带": 1983,
      "師": 1984,
      "帮": 1985,
      "帰": 1986,
      "帶": 1987,
      "常": 1988,
      "干": 1989,
      "平": 1990,
      "年": 1991,
      "并": 1992,
      "幹": 1993,
      "幻": 1994,
      "幼": 1995,
      "幽": 1996,
      "广": 1997,
      "広": 1998,
      "庆": 1999,
      "床": 2000,
      "府": 2001,
      "度": 2002,
      "庭": 2003,
      "康": 2004,
      "廚": 2005,
      "廬": 2006,
      "延": 2007,
      "廷": 2008,
      "建": 2009,
      "开": 2010,
      "异": 2011,
      "弄": 2012,
      "弊": 2013,
      "式": 2014,
      "引": 2015,
      "弘": 2016,
      "弟": 2017,
      "张": 2018,
      "弦": 2019,
      "弱": 2020,
      "張": 2021,
      "強": 2022,
      "弹": 2023,
      "强": 2024,
      "归": 2025,
      "当": 2026,
      "形": 2027,
      "彤": 2028,
      "彦": 2029,
      "彩": 2030,
      "彭": 2031,
      "影": 2032,
      "往": 2033,
      "征": 2034,
      "徂": 2035,
      "律": 2036,
      "後": 2037,
      "得": 2038,
      "御": 2039,
      "復": 2040,
      "微": 2041,
      "徵": 2042,
      "德": 2043,
      "心": 2044,
      "必": 2045,
      "志": 2046,
      "忘": 2047,
      "快": 2048,
      "念": 2049,
      "忽": 2050,
      "怒": 2051,
      "怖": 2052,
      "思": 2053,
      "急": 2054,
      "性": 2055,
      "恐": 2056,
      "恒": 2057,
      "恩": 2058,
      "息": 2059,
      "恶": 2060,
      "悟": 2061,
      "患": 2062,
      "悴": 2063,
      "悶": 2064,
      "情": 2065,
      "惊": 2066,
      "惑": 2067,
      "惜": 2068,
      "惠": 2069,
      "惡": 2070,
      "想": 2071,
      "愈": 2072,
      "意": 2073,
      "愛": 2074,
      "感": 2075,
      "愿": 2076,
      "慈": 2077,
      "慎": 2078,
      "慕": 2079,
      "慧": 2080,
      "慮": 2081,
      "慰": 2082,
      "慶": 2083,
      "憂": 2084,
      "憹": 2085,
      "懈": 2086,
      "應": 2087,
      "懊": 2088,
      "懷": 2089,
      "懸": 2090,
      "戌": 2091,
      "戎": 2092,
      "成": 2093,
      "我": 2094,
      "或": 2095,
      "战": 2096,
      "戟": 2097,
      "戲": 2098,
      "户": 2099,
      "戾": 2100,
      "所": 2101,
      "扁": 2102,
      "手": 2103,
      "才": 2104,
      "打": 2105,
      "扳": 2106,
      "扶": 2107,
      "扼": 2108,
      "承": 2109,
      "技": 2110,
      "抑": 2111,
      "抖": 2112,
      "护": 2113,
      "抱": 2114,
      "抽": 2115,
      "担": 2116,
      "拍": 2117,
      "拔": 2118,
      "拘": 2119,
      "拜": 2120,
      "拨": 2121,
      "拳": 2122,
      "拿": 2123,
      "指": 2124,
      "按": 2125,
      "挑": 2126,
      "挟": 2127,
      "振": 2128,
      "捏": 2129,
      "损": 2130,
      "捣": 2131,
      "捻": 2132,
      "掌": 2133,
      "排": 2134,
      "探": 2135,
      "控": 2136,
      "推": 2137,
      "揉": 2138,
      "提": 2139,
      "插": 2140,
      "損": 2141,
      "摇": 2142,
      "摧": 2143,
      "摩": 2144,
      "擇": 2145,
      "操": 2146,
      "擦": 2147,
      "攒": 2148,
      "支": 2149,
      "收": 2150,
      "改": 2151,
      "攻": 2152,
      "放": 2153,
      "政": 2154,
      "故": 2155,
      "效": 2156,
      "敎": 2157,
      "敏": 2158,
      "救": 2159,
      "教": 2160,
      "敝": 2161,
      "散": 2162,
      "敦": 2163,
      "敬": 2164,
      "数": 2165,
      "整": 2166,
      "數": 2167,
      "文": 2168,
      "斋": 2169,
      "斑": 2170,
      "斗": 2171,
      "料": 2172,
      "斤": 2173,
      "斬": 2174,
      "斯": 2175,
      "新": 2176,
      "斲": 2177,
      "斷": 2178,
      "方": 2179,
      "施": 2180,
      "旃": 2181,
      "旅": 2182,
      "旋": 2183,
      "无": 2184,
      "日": 2185,
      "旦": 2186,
      "旨": 2187,
      "早": 2188,
      "旭": 2189,
      "昌": 2190,
      "明": 2191,
      "昏": 2192,
      "易": 2193,
      "昔": 2194,
      "星": 2195,
      "映": 2196,
      "春": 2197,
      "昨": 2198,
      "是": 2199,
      "時": 2200,
      "晉": 2201,
      "晏": 2202,
      "晒": 2203,
      "晓": 2204,
      "晕": 2205,
      "晚": 2206,
      "晝": 2207,
      "普": 2208,
      "景": 2209,
      "晰": 2210,
      "晴": 2211,
      "智": 2212,
      "暉": 2213,
      "暑": 2214,
      "暨": 2215,
      "暴": 2216,
      "曲": 2217,
      "更": 2218,
      "書": 2219,
      "曹": 2220,
      "會": 2221,
      "月": 2222,
      "有": 2223,
      "服": 2224,
      "望": 2225,
      "朝": 2226,
      "期": 2227,
      "木": 2228,
      "未": 2229,
      "本": 2230,
      "札": 2231,
      "术": 2232,
      "朱": 2233,
      "朴": 2234,
      "机": 2235,
      "朽": 2236,
      "杂": 2237,
      "李": 2238,
      "杜": 2239,
      "杞": 2240,
      "来": 2241,
      "杨": 2242,
      "杰": 2243,
      "東": 2244,
      "杲": 2245,
      "杼": 2246,
      "松": 2247,
      "极": 2248,
      "构": 2249,
      "枕": 2250,
      "林": 2251,
      "枚": 2252,
      "果": 2253,
      "枝": 2254,
      "枢": 2255,
      "枣": 2256,
      "枪": 2257,
      "枯": 2258,
      "枳": 2259,
      "架": 2260,
      "枸": 2261,
      "柏": 2262,
      "柔": 2263,
      "柴": 2264,
      "栀": 2265,
      "标": 2266,
      "树": 2267,
      "栗": 2268,
      "校": 2269,
      "核": 2270,
      "根": 2271,
      "格": 2272,
      "桂": 2273,
      "桃": 2274,
      "框": 2275,
      "案": 2276,
      "桑": 2277,
      "梁": 2278,
      "梃": 2279,
      "梅": 2280,
      "梴": 2281,
      "棄": 2282,
      "棗": 2283,
      "森": 2284,
      "植": 2285,
      "椎": 2286,
      "楊": 2287,
      "楝": 2288,
      "業": 2289,
      "極": 2290,
      "楼": 2291,
      "樂": 2292,
      "樊": 2293,
      "樓": 2294,
      "標": 2295,
      "樞": 2296,
      "模": 2297,
      "横": 2298,
      "樸": 2299,
      "機": 2300,
      "橡": 2301,
      "欣": 2302,
      "欲": 2303,
      "歌": 2304,
      "歎": 2305,
      "正": 2306,
      "此": 2307,
      "步": 2308,
      "武": 2309,
      "歧": 2310,
      "歸": 2311,
      "死": 2312,
      "殊": 2313,
      "残": 2314,
      "段": 2315,
      "母": 2316,
      "毒": 2317,
      "比": 2318,
      "氏": 2319,
      "民": 2320,
      "气": 2321,
      "気": 2322,
      "氣": 2323,
      "水": 2324,
      "氵": 2325,
      "永": 2326,
      "求": 2327,
      "汉": 2328,
      "汗": 2329,
      "汝": 2330,
      "江": 2331,
      "池": 2332,
      "汤": 2333,
      "沈": 2334,
      "沉": 2335,
      "沌": 2336,
      "沙": 2337,
      "没": 2338,
      "沸": 2339,
      "治": 2340,
      "泉": 2341,
      "法": 2342,
      "泛": 2343,
      "泡": 2344,
      "泣": 2345,
      "注": 2346,
      "泪": 2347,
      "泰": 2348,
      "泻": 2349,
      "泽": 2350,
      "洁": 2351,
      "洋": 2352,
      "洞": 2353,
      "津": 2354,
      "洩": 2355,
      "洪": 2356,
      "洲": 2357,
      "活": 2358,
      "派": 2359,
      "流": 2360,
      "济": 2361,
      "浙": 2362,
      "浚": 2363,
      "浦": 2364,
      "浮": 2365,
      "海": 2366,
      "消": 2367,
      "涉": 2368,
      "涌": 2369,
      "涛": 2370,
      "润": 2371,
      "液": 2372,
      "涵": 2373,
      "涼": 2374,
      "淋": 2375,
      "淡": 2376,
      "淫": 2377,
      "深": 2378,
      "淵": 2379,
      "混": 2380,
      "添": 2381,
      "清": 2382,
      "済": 2383,
      "渊": 2384,
      "渚": 2385,
      "渠": 2386,
      "渡": 2387,
      "温": 2388,
      "渴": 2389,
      "游": 2390,
      "渺": 2391,
      "湖": 2392,
      "湘": 2393,
      "湯": 2394,
      "湾": 2395,
      "湿": 2396,
      "源": 2397,
      "準": 2398,
      "溪": 2399,
      "溫": 2400,
      "溼": 2401,
      "滋": 2402,
      "滎": 2403,
      "滑": 2404,
      "滚": 2405,
      "滞": 2406,
      "满": 2407,
      "滯": 2408,
      "漆": 2409,
      "漏": 2410,
      "演": 2411,
      "漢": 2412,
      "漲": 2413,
      "潜": 2414,
      "澀": 2415,
      "澄": 2416,
      "激": 2417,
      "濕": 2418,
      "濟": 2419,
      "濤": 2420,
      "濼": 2421,
      "瀉": 2422,
      "灣": 2423,
      "火": 2424,
      "灵": 2425,
      "灶": 2426,
      "灸": 2427,
      "災": 2428,
      "灾": 2429,
      "炎": 2430,
      "炒": 2431,
      "炙": 2432,
      "炭": 2433,
      "炮": 2434,
      "点": 2435,
      "為": 2436,
      "炽": 2437,
      "烈": 2438,
      "烦": 2439,
      "烧": 2440,
      "热": 2441,
      "焉": 2442,
      "無": 2443,
      "焦": 2444,
      "然": 2445,
      "煉": 2446,
      "煌": 2447,
      "煎": 2448,
      "煒": 2449,
      "煩": 2450,
      "熙": 2451,
      "熟": 2452,
      "熱": 2453,
      "熹": 2454,
      "燔": 2455,
      "燕": 2456,
      "燥": 2457,
      "爛": 2458,
      "爪": 2459,
      "爱": 2460,
      "爵": 2461,
      "父": 2462,
      "爾": 2463,
      "片": 2464,
      "版": 2465,
      "牒": 2466,
      "牙": 2467,
      "牛": 2468,
      "牡": 2469,
      "物": 2470,
      "特": 2471,
      "状": 2472,
      "狀": 2473,
      "狂": 2474,
      "狐": 2475,
      "狼": 2476,
      "献": 2477,
      "猶": 2478,
      "獨": 2479,
      "獻": 2480,
      "玄": 2481,
      "玉": 2482,
      "王": 2483,
      "玮": 2484,
      "环": 2485,
      "现": 2486,
      "珂": 2487,
      "珠": 2488,
      "現": 2489,
      "球": 2490,
      "理": 2491,
      "琴": 2492,
      "瑞": 2493,
      "瑭": 2494,
      "瓜": 2495,
      "甘": 2496,
      "甚": 2497,
      "生": 2498,
      "産": 2499,
      "用": 2500,
      "甫": 2501,
      "田": 2502,
      "由": 2503,
      "甲": 2504,
      "申": 2505,
      "电": 2506,
      "男": 2507,
      "界": 2508,
      "畏": 2509,
      "留": 2510,
      "略": 2511,
      "異": 2512,
      "當": 2513,
      "疏": 2514,
      "疑": 2515,
      "疒": 2516,
      "疗": 2517,
      "疝": 2518,
      "疠": 2519,
      "疡": 2520,
      "疫": 2521,
      "疬": 2522,
      "疮": 2523,
      "疰": 2524,
      "疳": 2525,
      "疸": 2526,
      "疹": 2527,
      "疼": 2528,
      "疽": 2529,
      "疾": 2530,
      "痃": 2531,
      "病": 2532,
      "症": 2533,
      "痈": 2534,
      "痛": 2535,
      "痞": 2536,
      "痟": 2537,
      "痫": 2538,
      "痰": 2539,
      "痱": 2540,
      "痲": 2541,
      "痴": 2542,
      "痹": 2543,
      "痺": 2544,
      "痿": 2545,
      "瘀": 2546,
      "瘕": 2547,
      "瘙": 2548,
      "瘟": 2549,
      "瘫": 2550,
      "瘰": 2551,
      "瘴": 2552,
      "瘾": 2553,
      "瘿": 2554,
      "療": 2555,
      "癌": 2556,
      "癍": 2557,
      "癖": 2558,
      "癘": 2559,
      "癢": 2560,
      "癥": 2561,
      "癫": 2562,
      "癬": 2563,
      "癲": 2564,
      "癳": 2565,
      "癸": 2566,
      "發": 2567,
      "白": 2568,
      "百": 2569,
      "的": 2570,
      "皆": 2571,
      "皇": 2572,
      "皈": 2573,
      "皮": 2574,
      "盆": 2575,
      "益": 2576,
      "盐": 2577,
      "盛": 2578,
      "盡": 2579,
      "目": 2580,
      "盲": 2581,
      "直": 2582,
      "相": 2583,
      "省": 2584,
      "真": 2585,
      "眠": 2586,
      "眩": 2587,
      "眷": 2588,
      "眼": 2589,
      "眾": 2590,
      "睛": 2591,
      "睡": 2592,
      "督": 2593,
      "瞀": 2594,
      "瞻": 2595,
      "知": 2596,
      "石": 2597,
      "研": 2598,
      "破": 2599,
      "础": 2600,
      "硏": 2601,
      "碍": 2602,
      "碑": 2603,
      "碱": 2604,
      "磁": 2605,
      "礬": 2606,
      "示": 2607,
      "社": 2608,
      "祁": 2609,
      "祖": 2610,
      "祛": 2611,
      "神": 2612,
      "祟": 2613,
      "祿": 2614,
      "禄": 2615,
      "禅": 2616,
      "福": 2617,
      "禮": 2618,
      "禹": 2619,
      "离": 2620,
      "禽": 2621,
      "秋": 2622,
      "科": 2623,
      "积": 2624,
      "程": 2625,
      "稍": 2626,
      "稚": 2627,
      "種": 2628,
      "稻": 2629,
      "穀": 2630,
      "積": 2631,
      "穴": 2632,
      "究": 2633,
      "突": 2634,
      "窌": 2635,
      "窝": 2636,
      "窥": 2637,
      "窦": 2638,
      "竇": 2639,
      "站": 2640,
      "竜": 2641,
      "竞": 2642,
      "章": 2643,
      "童": 2644,
      "端": 2645,
      "竹": 2646,
      "笈": 2647,
      "笑": 2648,
      "符": 2649,
      "第": 2650,
      "等": 2651,
      "筋": 2652,
      "管": 2653,
      "節": 2654,
      "範": 2655,
      "篇": 2656,
      "築": 2657,
      "篤": 2658,
      "簡": 2659,
      "簿": 2660,
      "籍": 2661,
      "籤": 2662,
      "米": 2663,
      "类": 2664,
      "籼": 2665,
      "粉": 2666,
      "粒": 2667,
      "粗": 2668,
      "粳": 2669,
      "精": 2670,
      "糖": 2671,
      "糯": 2672,
      "系": 2673,
      "紀": 2674,
      "紅": 2675,
      "納": 2676,
      "素": 2677,
      "索": 2678,
      "紧": 2679,
      "紫": 2680,
      "累": 2681,
      "終": 2682,
      "経": 2683,
      "絡": 2684,
      "統": 2685,
      "絶": 2686,
      "經": 2687,
      "綜": 2688,
      "綠": 2689,
      "維": 2690,
      "綱": 2691,
      "網": 2692,
      "緊": 2693,
      "緣": 2694,
      "編": 2695,
      "緩": 2696,
      "繁": 2697,
      "繆": 2698,
      "繇": 2699,
      "繩": 2700,
      "繼": 2701,
      "红": 2702,
      "纯": 2703,
      "纲": 2704,
      "纳": 2705,
      "线": 2706,
      "练": 2707,
      "组": 2708,
      "细": 2709,
      "绍": 2710,
      "经": 2711,
      "结": 2712,
      "络": 2713,
      "绝": 2714,
      "统": 2715,
      "继": 2716,
      "维": 2717,
      "绵": 2718,
      "综": 2719,
      "缓": 2720,
      "编": 2721,
      "缝": 2722,
      "缩": 2723,
      "缪": 2724,
      "罐": 2725,
      "网": 2726,
      "罔": 2727,
      "罡": 2728,
      "罪": 2729,
      "罽": 2730,
      "羅": 2731,
      "羊": 2732,
      "羌": 2733,
      "美": 2734,
      "羚": 2735,
      "義": 2736,
      "羲": 2737,
      "羸": 2738,
      "翁": 2739,
      "翘": 2740,
      "翠": 2741,
      "翰": 2742,
      "翳": 2743,
      "翻": 2744,
      "翼": 2745,
      "老": 2746,
      "者": 2747,
      "而": 2748,
      "耳": 2749,
      "耶": 2750,
      "耿": 2751,
      "聊": 2752,
      "联": 2753,
      "聖": 2754,
      "聚": 2755,
      "聞": 2756,
      "聾": 2757,
      "肃": 2758,
      "肉": 2759,
      "肌": 2760,
      "肘": 2761,
      "肝": 2762,
      "肠": 2763,
      "肢": 2764,
      "肤": 2765,
      "肩": 2766,
      "肯": 2767,
      "育": 2768,
      "肺": 2769,
      "肾": 2770,
      "肿": 2771,
      "胀": 2772,
      "胁": 2773,
      "胃": 2774,
      "胆": 2775,
      "背": 2776,
      "胎": 2777,
      "胕": 2778,
      "胗": 2779,
      "胛": 2780,
      "胞": 2781,
      "胡": 2782,
      "胰": 2783,
      "胱": 2784,
      "胶": 2785,
      "胸": 2786,
      "能": 2787,
      "脂": 2788,
      "脅": 2789,
      "脈": 2790,
      "脉": 2791,
      "脊": 2792,
      "脏": 2793,
      "脑": 2794,
      "脚": 2795,
      "脛": 2796,
      "脱": 2797,
      "脸": 2798,
      "脾": 2799,
      "腋": 2800,
      "腎": 2801,
      "腑": 2802,
      "腕": 2803,
      "腠": 2804,
      "腧": 2805,
      "腫": 2806,
      "腮": 2807,
      "腰": 2808,
      "腳": 2809,
      "腸": 2810,
      "腹": 2811,
      "腺": 2812,
      "腾": 2813,
      "腿": 2814,
      "膀": 2815,
      "膈": 2816,
      "膏": 2817,
      "膚": 2818,
      "膜": 2819,
      "膝": 2820,
      "膳": 2821,
      "膻": 2822,
      "臀": 2823,
      "臟": 2824,
      "臣": 2825,
      "自": 2826,
      "至": 2827,
      "臺": 2828,
      "與": 2829,
      "舌": 2830,
      "舍": 2831,
      "舒": 2832,
      "舘": 2833,
      "舢": 2834,
      "船": 2835,
      "良": 2836,
      "色": 2837,
      "艾": 2838,
      "节": 2839,
      "芍": 2840,
      "芎": 2841,
      "芝": 2842,
      "芥": 2843,
      "芦": 2844,
      "芩": 2845,
      "芪": 2846,
      "芫": 2847,
      "花": 2848,
      "芳": 2849,
      "苏": 2850,
      "苓": 2851,
      "若": 2852,
      "苦": 2853,
      "英": 2854,
      "茂": 2855,
      "范": 2856,
      "茄": 2857,
      "茜": 2858,
      "茯": 2859,
      "茱": 2860,
      "茶": 2861,
      "荀": 2862,
      "草": 2863,
      "荔": 2864,
      "荘": 2865,
      "荣": 2866,
      "荤": 2867,
      "荨": 2868,
      "药": 2869,
      "莖": 2870,
      "莘": 2871,
      "莝": 2872,
      "莫": 2873,
      "莽": 2874,
      "菀": 2875,
      "菌": 2876,
      "菜": 2877,
      "華": 2878,
      "萄": 2879,
      "萍": 2880,
      "萎": 2881,
      "营": 2882,
      "萧": 2883,
      "萬": 2884,
      "萸": 2885,
      "葉": 2886,
      "著": 2887,
      "葛": 2888,
      "葡": 2889,
      "董": 2890,
      "葵": 2891,
      "蒌": 2892,
      "蒲": 2893,
      "蒸": 2894,
      "蒿": 2895,
      "蓮": 2896,
      "蔘": 2897,
      "蔚": 2898,
      "蔻": 2899,
      "蕴": 2900,
      "薛": 2901,
      "薤": 2902,
      "薬": 2903,
      "藏": 2904,
      "藤": 2905,
      "藥": 2906,
      "藩": 2907,
      "蘇": 2908,
      "虎": 2909,
      "虐": 2910,
      "處": 2911,
      "虚": 2912,
      "虛": 2913,
      "虫": 2914,
      "蚊": 2915,
      "蚕": 2916,
      "蛇": 2917,
      "蛊": 2918,
      "蛎": 2919,
      "蛮": 2920,
      "蜀": 2921,
      "蜂": 2922,
      "蜗": 2923,
      "蜜": 2924,
      "螞": 2925,
      "螺": 2926,
      "蟅": 2927,
      "蟬": 2928,
      "蠅": 2929,
      "蠣": 2930,
      "血": 2931,
      "衆": 2932,
      "行": 2933,
      "術": 2934,
      "街": 2935,
      "衛": 2936,
      "衝": 2937,
      "衞": 2938,
      "衡": 2939,
      "衣": 2940,
      "补": 2941,
      "表": 2942,
      "衰": 2943,
      "袁": 2944,
      "裂": 2945,
      "装": 2946,
      "裏": 2947,
      "補": 2948,
      "襄": 2949,
      "西": 2950,
      "要": 2951,
      "覃": 2952,
      "覆": 2953,
      "見": 2954,
      "規": 2955,
      "視": 2956,
      "親": 2957,
      "覺": 2958,
      "觀": 2959,
      "观": 2960,
      "视": 2961,
      "觉": 2962,
      "角": 2963,
      "解": 2964,
      "言": 2965,
      "計": 2966,
      "記": 2967,
      "訣": 2968,
      "許": 2969,
      "診": 2970,
      "証": 2971,
      "試": 2972,
      "説": 2973,
      "誰": 2974,
      "調": 2975,
      "論": 2976,
      "諸": 2977,
      "謂": 2978,
      "謍": 2979,
      "謐": 2980,
      "謝": 2981,
      "謹": 2982,
      "證": 2983,
      "識": 2984,
      "譯": 2985,
      "護": 2986,
      "變": 2987,
      "计": 2988,
      "记": 2989,
      "论": 2990,
      "设": 2991,
      "证": 2992,
      "评": 2993,
      "诊": 2994,
      "试": 2995,
      "诚": 2996,
      "语": 2997,
      "说": 2998,
      "诸": 2999,
      "诺": 3000,
      "调": 3001,
      "谐": 3002,
      "谢": 3003,
      "谭": 3004,
      "谷": 3005,
      "谿": 3006,
      "豆": 3007,
      "豇": 3008,
      "豈": 3009,
      "豉": 3010,
      "豚": 3011,
      "象": 3012,
      "豫": 3013,
      "貴": 3014,
      "資": 3015,
      "賓": 3016,
      "賢": 3017,
      "賦": 3018,
      "質": 3019,
      "賴": 3020,
      "败": 3021,
      "质": 3022,
      "贯": 3023,
      "贺": 3024,
      "赋": 3025,
      "赖": 3026,
      "赤": 3027,
      "起": 3028,
      "足": 3029,
      "趺": 3030,
      "踝": 3031,
      "蹄": 3032,
      "蹔": 3033,
      "躁": 3034,
      "身": 3035,
      "軍": 3036,
      "軾": 3037,
      "輒": 3038,
      "輕": 3039,
      "輪": 3040,
      "輸": 3041,
      "轉": 3042,
      "转": 3043,
      "轮": 3044,
      "轸": 3045,
      "载": 3046,
      "辅": 3047,
      "辛": 3048,
      "辞": 3049,
      "辟": 3050,
      "辨": 3051,
      "辩": 3052,
      "辭": 3053,
      "農": 3054,
      "迅": 3055,
      "过": 3056,
      "迎": 3057,
      "运": 3058,
      "近": 3059,
      "还": 3060,
      "远": 3061,
      "违": 3062,
      "连": 3063,
      "迪": 3064,
      "述": 3065,
      "迷": 3066,
      "退": 3067,
      "送": 3068,
      "逆": 3069,
      "选": 3070,
      "逍": 3071,
      "透": 3072,
      "逐": 3073,
      "通": 3074,
      "速": 3075,
      "連": 3076,
      "進": 3077,
      "逸": 3078,
      "遂": 3079,
      "遇": 3080,
      "遊": 3081,
      "運": 3082,
      "過": 3083,
      "道": 3084,
      "遗": 3085,
      "遠": 3086,
      "遣": 3087,
      "遥": 3088,
      "適": 3089,
      "遲": 3090,
      "遽": 3091,
      "避": 3092,
      "邁": 3093,
      "還": 3094,
      "邈": 3095,
      "邑": 3096,
      "邓": 3097,
      "邪": 3098,
      "郁": 3099,
      "郄": 3100,
      "部": 3101,
      "郭": 3102,
      "都": 3103,
      "鄕": 3104,
      "酒": 3105,
      "酸": 3106,
      "醋": 3107,
      "醫": 3108,
      "醴": 3109,
      "释": 3110,
      "釋": 3111,
      "里": 3112,
      "重": 3113,
      "野": 3114,
      "量": 3115,
      "釐": 3116,
      "金": 3117,
      "釜": 3118,
      "針": 3119,
      "鉴": 3120,
      "鋆": 3121,
      "錄": 3122,
      "錦": 3123,
      "錫": 3124,
      "録": 3125,
      "鍼": 3126,
      "鐵": 3127,
      "鑑": 3128,
      "鑫": 3129,
      "针": 3130,
      "钊": 3131,
      "钟": 3132,
      "钩": 3133,
      "钱": 3134,
      "铁": 3135,
      "铭": 3136,
      "铺": 3137,
      "锐": 3138,
      "错": 3139,
      "锡": 3140,
      "锦": 3141,
      "锭": 3142,
      "長": 3143,
      "长": 3144,
      "門": 3145,
      "閉": 3146,
      "開": 3147,
      "閑": 3148,
      "閒": 3149,
      "闊": 3150,
      "闔": 3151,
      "闕": 3152,
      "關": 3153,
      "门": 3154,
      "闪": 3155,
      "闭": 3156,
      "问": 3157,
      "间": 3158,
      "闷": 3159,
      "闽": 3160,
      "阁": 3161,
      "队": 3162,
      "防": 3163,
      "阳": 3164,
      "阴": 3165,
      "阻": 3166,
      "阿": 3167,
      "陀": 3168,
      "附": 3169,
      "陆": 3170,
      "陈": 3171,
      "降": 3172,
      "陟": 3173,
      "院": 3174,
      "除": 3175,
      "险": 3176,
      "陰": 3177,
      "陳": 3178,
      "陵": 3179,
      "陶": 3180,
      "陷": 3181,
      "陸": 3182,
      "陽": 3183,
      "隐": 3184,
      "隙": 3185,
      "障": 3186,
      "隨": 3187,
      "隱": 3188,
      "难": 3189,
      "雀": 3190,
      "雄": 3191,
      "集": 3192,
      "雙": 3193,
      "雜": 3194,
      "雞": 3195,
      "難": 3196,
      "雨": 3197,
      "雪": 3198,
      "雲": 3199,
      "雷": 3200,
      "雾": 3201,
      "震": 3202,
      "霜": 3203,
      "露": 3204,
      "靈": 3205,
      "青": 3206,
      "静": 3207,
      "靜": 3208,
      "非": 3209,
      "面": 3210,
      "靳": 3211,
      "鞠": 3212,
      "韓": 3213,
      "韩": 3214,
      "頃": 3215,
      "順": 3216,
      "須": 3217,
      "頓": 3218,
      "頭": 3219,
      "顔": 3220,
      "願": 3221,
      "類": 3222,
      "顶": 3223,
      "顺": 3224,
      "须": 3225,
      "顽": 3226,
      "预": 3227,
      "领": 3228,
      "颈": 3229,
      "颐": 3230,
      "颓": 3231,
      "颗": 3232,
      "题": 3233,
      "颞": 3234,
      "風": 3235,
      "风": 3236,
      "飞": 3237,
      "食": 3238,
      "飬": 3239,
      "飲": 3240,
      "養": 3241,
      "餘": 3242,
      "饮": 3243,
      "饶": 3244,
      "首": 3245,
      "香": 3246,
      "馬": 3247,
      "馳": 3248,
      "驗": 3249,
      "马": 3250,
      "骨": 3251,
      "骭": 3252,
      "骯": 3253,
      "髂": 3254,
      "髎": 3255,
      "體": 3256,
      "高": 3257,
      "鬱": 3258,
      "鬼": 3259,
      "魂": 3260,
      "魄": 3261,
      "魅": 3262,
      "魚": 3263,
      "魯": 3264,
      "鮮": 3265,
      "鯧": 3266,
      "鱼": 3267,
      "鲍": 3268,
      "鳖": 3269,
      "鵝": 3270,
      "鸡": 3271,
      "鸬": 3272,
      "鹊": 3273,
      "鹏": 3274,
      "鹚": 3275,
      "鹤": 3276,
      "鹵": 3277,
      "鹽": 3278,
      "麗": 3279,
      "麥": 3280,
      "麦": 3281,
      "麩": 3282,
      "麯": 3283,
      "麴": 3284,
      "麵": 3285,
      "麻": 3286,
      "黃": 3287,
      "黄": 3288,
      "黑": 3289,
      "鼎": 3290,
      "鼓": 3291,
      "鼠": 3292,
      "鼻": 3293,
      "齊": 3294,
      "齋": 3295,
      "齒": 3296,
      "齘": 3297,
      "齿": 3298,
      "龙": 3299,
      "龟": 3300,
      "ꙴ": 3301,
      "ꙸ": 3302,
      "Ꝋ": 3303,
      "꞊": 3304,
      "푛": 3305,
      "푝": 3306,
      "휇": 3307,
      "ﬀ": 3308,
      "ﬁ": 3309,
      "ﬂ": 3310,
      "ﬃ": 3311,
      "ﬄ": 3312,
      "﷓": 3313,
      "︁": 3314,
      "︎": 3315,
      "️": 3316,
      "ﺁ": 3317,
      "ﺲ": 3318,
      "ﻟ": 3319,
      "ﻠ": 3320,
      "（": 3321,
      "）": 3322,
      "，": 3323,
      "．": 3324,
      "：": 3325,
      "ﾟ": 3326,
      "￪": 3327,
      "￬": 3328,
      "￮": 3329,
      "￼": 3330,
      "𝐀": 3331,
      "𝐂": 3332,
      "𝐄": 3333,
      "𝐅": 3334,
      "𝐈": 3335,
      "𝐊": 3336,
      "𝐋": 3337,
      "𝐌": 3338,
      "𝐍": 3339,
      "𝐎": 3340,
      "𝐏": 3341,
      "𝐑": 3342,
      "𝐓": 3343,
      "𝐕": 3344,
      "𝐚": 3345,
      "𝐛": 3346,
      "𝐜": 3347,
      "𝐞": 3348,
      "𝐟": 3349,
      "𝐡": 3350,
      "𝐢": 3351,
      "𝐤": 3352,
      "𝐥": 3353,
      "𝐦": 3354,
      "𝐧": 3355,
      "𝐨": 3356,
      "𝐩": 3357,
      "𝐫": 3358,
      "𝐬": 3359,
      "𝐭": 3360,
      "𝐯": 3361,
      "𝐰": 3362,
      "𝐱": 3363,
      "𝐲": 3364,
      "𝐴": 3365,
      "𝐵": 3366,
      "𝐶": 3367,
      "𝐷": 3368,
      "𝐸": 3369,
      "𝐹": 3370,
      "𝐺": 3371,
      "𝐻": 3372,
      "𝐼": 3373,
      "𝐽": 3374,
      "𝐾": 3375,
      "𝐿": 3376,
      "𝑀": 3377,
      "𝑁": 3378,
      "𝑂": 3379,
      "𝑃": 3380,
      "𝑄": 3381,
      "𝑅": 3382,
      "𝑆": 3383,
      "𝑇": 3384,
      "𝑈": 3385,
      "𝑉": 3386,
      "𝑊": 3387,
      "𝑋": 3388,
      "𝑌": 3389,
      "𝑍": 3390,
      "𝑎": 3391,
      "𝑏": 3392,
      "𝑐": 3393,
      "𝑑": 3394,
      "𝑒": 3395,
      "𝑓": 3396,
      "𝑔": 3397,
      "𝑕": 3398,
      "𝑖": 3399,
      "𝑗": 3400,
      "𝑘": 3401,
      "𝑙": 3402,
      "𝑚": 3403,
      "𝑛": 3404,
      "𝑜": 3405,
      "𝑝": 3406,
      "𝑞": 3407,
      "𝑟": 3408,
      "𝑠": 3409,
      "𝑡": 3410,
      "𝑢": 3411,
      "𝑣": 3412,
      "𝑤": 3413,
      "𝑥": 3414,
      "𝑦": 3415,
      "𝑧": 3416,
      "𝑨": 3417,
      "𝑪": 3418,
      "𝑬": 3419,
      "𝑭": 3420,
      "𝑯": 3421,
      "𝑰": 3422,
      "𝑱": 3423,
      "𝑲": 3424,
      "𝑳": 3425,
      "𝑵": 3426,
      "𝑶": 3427,
      "𝑷": 3428,
      "𝑹": 3429,
      "𝑺": 3430,
      "𝑻": 3431,
      "𝑼": 3432,
      "𝑽": 3433,
      "𝑾": 3434,
      "𝒁": 3435,
      "𝒂": 3436,
      "𝒃": 3437,
      "𝒄": 3438,
      "𝒅": 3439,
      "𝒆": 3440,
      "𝒇": 3441,
      "𝒈": 3442,
      "𝒉": 3443,
      "𝒊": 3444,
      "𝒌": 3445,
      "𝒍": 3446,
      "𝒎": 3447,
      "𝒏": 3448,
      "𝒐": 3449,
      "𝒑": 3450,
      "𝒓": 3451,
      "𝒔": 3452,
      "𝒕": 3453,
      "𝒖": 3454,
      "𝒗": 3455,
      "𝒘": 3456,
      "𝒙": 3457,
      "𝒚": 3458,
      "𝒛": 3459,
      "𝚱": 3460,
      "𝛅": 3461,
      "𝛌": 3462,
      "𝛥": 3463,
      "𝛴": 3464,
      "𝛼": 3465,
      "𝛽": 3466,
      "𝛾": 3467,
      "𝛿": 3468,
      "𝜀": 3469,
      "𝜂": 3470,
      "𝜃": 3471,
      "𝜅": 3472,
      "𝜆": 3473,
      "𝜇": 3474,
      "𝜈": 3475,
      "𝜋": 3476,
      "𝜌": 3477,
      "𝜎": 3478,
      "𝜏": 3479,
      "𝜑": 3480,
      "𝜒": 3481,
      "𝜔": 3482,
      "𝜖": 3483,
      "𝜶": 3484,
      "𝜺": 3485,
      "𝝆": 3486,
      "𝝈": 3487,
      "𝟎": 3488,
      "𝟏": 3489,
      "𝟐": 3490,
      "𝟑": 3491,
      "𝟒": 3492,
      "𝟓": 3493,
      "𝟔": 3494,
      "𝟕": 3495,
      "𝟖": 3496,
      "𝟗": 3497,
      "🎞": 3498,
      "👈": 3499,
      "👉": 3500,
      "👋": 3501,
      "👣": 3502,
      "👦": 3503,
      "👧": 3504,
      "👨": 3505,
      "👩": 3506,
      "💅": 3507,
      "💇": 3508,
      "💡": 3509,
      "🕕": 3510,
      "🖥": 3511,
      "😀": 3512,
      "😉": 3513,
      "😐": 3514,
      "😘": 3515,
      "🙏": 3516,
      "🤫": 3517,
      "🥼": 3518,
      "🧪": 3519,
      "🩺": 3520,
      "##o": 3521,
      "##l": 3522,
      "##y": 3523,
      "##c": 3524,
      "##i": 3525,
      "##s": 3526,
      "##a": 3527,
      "##e": 3528,
      "##n": 3529,
      "##b": 3530,
      "##h": 3531,
      "##ö": 3532,
      "##t": 3533,
      "##m": 3534,
      "##u": 3535,
      "##r": 3536,
      "##p": 3537,
      "##v": 3538,
      "##k": 3539,
      "##d": 3540,
      "##g": 3541,
      "##f": 3542,
      "##ä": 3543,
      "##w": 3544,
      "##z": 3545,
      "##B": 3546,
      "##A": 3547,
      "##x": 3548,
      "##S": 3549,
      "##R": 3550,
      "##P": 3551,
      "##1": 3552,
      "##F": 3553,
      "##0": 3554,
      "##3": 3555,
      "##4": 3556,
      "##2": 3557,
      "##9": 3558,
      "##ü": 3559,
      "##5": 3560,
      "##V": 3561,
      "##I": 3562,
      "##6": 3563,
      "##8": 3564,
      "##7": 3565,
      "##G": 3566,
      "##D": 3567,
      "##̈": 3568,
      "##ß": 3569,
      "##C": 3570,
      "##K": 3571,
      "##×": 3572,
      "##T": 3573,
      "##N": 3574,
      "##™": 3575,
      "##M": 3576,
      "##®": 3577,
      "##j": 3578,
      "##±": 3579,
      "##↑": 3580,
      "##U": 3581,
      "##q": 3582,
      "##Z": 3583,
      "##E": 3584,
      "##H": 3585,
      "##O": 3586,
      "##L": 3587,
      "##ӑ": 3588,
      "##é": 3589,
      "##X": 3590,
      "##≥": 3591,
      "##ˆ": 3592,
      "##Â": 3593,
      "##´": 3594,
      "##©": 3595,
      "##ÿ": 3596,
      "##Q": 3597,
      "##ô": 3598,
      "##W": 3599,
      "##J": 3600,
      "##γ": 3601,
      "##Y": 3602,
      "##̶": 3603,
      "##°": 3604,
      "##−": 3605,
      "##ν": 3606,
      "##ώ": 3607,
      "##σ": 3608,
      "##ι": 3609,
      "##ς": 3610,
      "##μ": 3611,
      "##¨": 3612,
      "##Ü": 3613,
      "##µ": 3614,
      "##Ö": 3615,
      "##→": 3616,
      "##Ä": 3617,
      "##á": 3618,
      "##͸": 3619,
      "##̂": 3620,
      "##β": 3621,
      "##ʼ": 3622,
      "##º": 3623,
      "##ō": 3624,
      "##↓": 3625,
      "##𝑜": 3626,
      "##𝑙": 3627,
      "##𝑢": 3628,
      "##𝑚": 3629,
      "##𝑒": 3630,
      "##𝑛": 3631,
      "##𝑃": 3632,
      "##𝑠": 3633,
      "##𝑡": 3634,
      "##ℎ": 3635,
      "##𝑟": 3636,
      "##𝑎": 3637,
      "##𝑝": 3638,
      "##𝑖": 3639,
      "##𝑐": 3640,
      "##ø": 3641,
      "##³": 3642,
      "##è": 3643,
      "##à": 3644,
      "##ó": 3645,
      "##♂": 3646,
      "##ē": 3647,
      "##í": 3648,
      "##ú": 3649,
      "##ã": 3650,
      "##ì": 3651,
      "##リ": 3652,
      "##ニ": 3653,
      "##ッ": 3654,
      "##ク": 3655,
      "##𝒍": 3656,
      "##𝒕": 3657,
      "##𝒆": 3658,
      "##𝒓": 3659,
      "##č": 3660,
      "##ć": 3661,
      "##α": 3662,
      "##υ": 3663,
      "##É": 3664,
      "##å": 3665,
      "##𝐶": 3666,
      "##𝑉": 3667,
      "##𝑘": 3668,
      "##₁": 3669,
      "##₂": 3670,
      "##ϑ": 3671,
      "##ω": 3672,
      "##Å": 3673,
      "##¹": 3674,
      "##τ": 3675,
      "##Θ": 3676,
      "##Є": 3677,
      "##Ν": 3678,
      "##²": 3679,
      "##ū": 3680,
      "##À": 3681,
      "##ò": 3682,
      "##ę": 3683,
      "##ð": 3684,
      "##Þ": 3685,
      "##š": 3686,
      "##↔": 3687,
      "##ª": 3688,
      "##≤": 3689,
      "##χ": 3690,
      "##λ": 3691,
      "##ύ": 3692,
      "##ο": 3693,
      "##Ÿ": 3694,
      "##˚": 3695,
      "##́": 3696,
      "##˗": 3697,
      "##κ": 3698,
      "##̀": 3699,
      "##≙": 3700,
      "##ë": 3701,
      "##▶": 3702,
      "##ρ": 3703,
      "##➝": 3704,
      "##Á": 3705,
      "##𝐻": 3706,
      "##𝑁": 3707,
      "##𝐼": 3708,
      "##ʿ": 3709,
      "##୫": 3710,
      "##୪": 3711,
      "##𝑇": 3712,
      "##€": 3713,
      "##ε": 3714,
      "##¬": 3715,
      "##ç": 3716,
      "##∡": 3717,
      "##ṣ": 3718,
      "##♦": 3719,
      "##ł": 3720,
      "##¯": 3721,
      "##ί": 3722,
      "##π": 3723,
      "##ά": 3724,
      "##θ": 3725,
      "##æ": 3726,
      "##∆": 3727,
      "##ᵇ": 3728,
      "##̇": 3729,
      "##𝑂": 3730,
      "##ȕ": 3731,
      "##Ã": 3732,
      "##¤": 3733,
      "##◦": 3734,
      "##Œ": 3735,
      "##â": 3736,
      "##ζ": 3737,
      "##∙": 3738,
      "##𝑑": 3739,
      "##𝜑": 3740,
      "##∞": 3741,
      "##È": 3742,
      "##⁄": 3743,
      "##⋅": 3744,
      "##س": 3745,
      "##ت": 3746,
      "##¼": 3747,
      "##î": 3748,
      "##○": 3749,
      "##𝑔": 3750,
      "##ή": 3751,
      "##и": 3752,
      "##ш": 3753,
      "##н": 3754,
      "##е": 3755,
      "##в": 3756,
      "##с": 3757,
      "##к": 3758,
      "##й": 3759,
      "##𝑵": 3760,
      "##δ": 3761,
      "##΄": 3762,
      "##˒": 3763,
      "##⎯": 3764,
      "##𝛼": 3765,
      "##¢": 3766,
      "##∗": 3767,
      "##Н": 3768,
      "##𝐺": 3769,
      "##ï": 3770,
      "##¸": 3771,
      "##£": 3772,
      "##ý": 3773,
      "##Σ": 3774,
      "##ı": 3775,
      "##ǐ": 3776,
      "##𝑏": 3777,
      "##т": 3778,
      "##о": 3779,
      "##∑": 3780,
      "##õ": 3781,
      "##đ": 3782,
      "##ê": 3783,
      "##⁰": 3784,
      "##ɑ": 3785,
      "##̗": 3786,
      "##⁻": 3787,
      "##⁶": 3788,
      "##ğ": 3789,
      "##∼": 3790,
      "##ξ": 3791,
      "##Ç": 3792,
      "##≈": 3793,
      "##ė": 3794,
      "##ñ": 3795,
      "##ş": 3796,
      "##Ž": 3797,
      "##ꙴ": 3798,
      "##ﬁ": 3799,
      "##♀": 3800,
      "##ń": 3801,
      "##₃": 3802,
      "##≪": 3803,
      "##𝜏": 3804,
      "##ﬂ": 3805,
      "##ӱ": 3806,
      "##ϕ": 3807,
      "##̓": 3808,
      "##Ȗ": 3809,
      "##ل": 3810,
      "##ؤ": 3811,
      "##ا": 3812,
      "##Ì": 3813,
      "##𝐸": 3814,
      "##𝐷": 3815,
      "##έ": 3816,
      "##ὴ": 3817,
      "##˜": 3818,
      "##د": 3819,
      "##ن": 3820,
      "##ي": 3821,
      "##ة": 3822,
      "##𝐜": 3823,
      "##ί": 3824,
      "##ȱ": 3825,
      "##φ": 3826,
      "##ό": 3827,
      "##✓": 3828,
      "##Δ": 3829,
      "##Í": 3830,
      "##ś": 3831,
      "##ϖ": 3832,
      "##─": 3833,
      "##┤": 3834,
      "##■": 3835,
      "##Ψ": 3836,
      "##𝑥": 3837,
      "##Ò": 3838,
      "##ج": 3839,
      "##ه": 3840,
      "##ك": 3841,
      "##│": 3842,
      "##ă": 3843,
      "##Ω": 3844,
      "##●": 3845,
      "##Ï": 3846,
      "##ǿ": 3847,
      "##♥": 3848,
      "##❤": 3849,
      "##❛": 3850,
      "##❧": 3851,
      "##✐": 3852,
      "##❝": 3853,
      "##❡": 3854,
      "##Ă": 3855,
      "##ƚ": 3856,
      "##ŝ": 3857,
      "##͞": 3858,
      "##ʹ": 3859,
      "##ϋ": 3860,
      "##ΰ": 3861,
      "##ȝ": 3862,
      "##𝑓": 3863,
      "##η": 3864,
      "##②": 3865,
      "##♣": 3866,
      "##ạ": 3867,
      "##Ћ": 3868,
      "##⌛": 3869,
      "##𝐀": 3870,
      "##𝐨": 3871,
      "##𝐫": 3872,
      "##𝐭": 3873,
      "##𝐞": 3874,
      "##𝐧": 3875,
      "##𝐤": 3876,
      "##𝐥": 3877,
      "##𝐚": 3878,
      "##𝐩": 3879,
      "##ě": 3880,
      "##𝑦": 3881,
      "##ɛ": 3882,
      "##л": 3883,
      "##у": 3884,
      "##𝐹": 3885,
      "##𝑧": 3886,
      "##⇒": 3887,
      "##Ρ": 3888,
      "##Μ": 3889,
      "##Ο": 3890,
      "##Ζ": 3891,
      "##Ι": 3892,
      "##ː": 3893,
      "##Ø": 3894,
      "##ψ": 3895,
      "##ŭ": 3896,
      "##⁺": 3897,
      "##∣": 3898,
      "##ĳ": 3899,
      "##ď": 3900,
      "##Ğ": 3901,
      "##ů": 3902,
      "##Ŷ": 3903,
      "##ǁ": 3904,
      "##Đ": 3905,
      "##Ŭ": 3906,
      "##𝐴": 3907,
      "##̋": 3908,
      "##⇓": 3909,
      "##˙": 3910,
      "##ὶ": 3911,
      "##Ô": 3912,
      "##∪": 3913,
      "##ź": 3914,
      "##¥": 3915,
      "##ż": 3916,
      "##⁹": 3917,
      "##ы": 3918,
      "##Φ": 3919,
      "##ହ": 3920,
      "##଴": 3921,
      "##ā": 3922,
      "##щ": 3923,
      "##☹": 3924,
      "##☐": 3925,
      "##̄": 3926,
      "##✳": 3927,
      "##✶": 3928,
      "##𝑅": 3929,
      "##𝒂": 3930,
      "##𝑷": 3931,
      "##𝑲": 3932,
      "##𝑤": 3933,
      "##ࡎ": 3934,
      "##а": 3935,
      "##⁸": 3936,
      "##Ε": 3937,
      "##Υ": 3938,
      "##ň": 3939,
      "##ą": 3940,
      "##⇤": 3941,
      "##ˈ": 3942,
      "##ʃ": 3943,
      "##ĩ": 3944,
      "##р": 3945,
      "##м": 3946,
      "##ц": 3947,
      "##ч": 3948,
      "##г": 3949,
      "##̅": 3950,
      "##œ": 3951,
      "##ž": 3952,
      "##︎": 3953,
      "##ſ": 3954,
      "##ʻ": 3955,
      "##ӧ": 3956,
      "##Р": 3957,
      "##þ": 3958,
      "##ᶰ": 3959,
      "##ḗ": 3960,
      "##х": 3961,
      "##ǀ": 3962,
      "##𝑣": 3963,
      "##𝒐": 3964,
      "##𝒔": 3965,
      "##𝒊": 3966,
      "##𝒗": 3967,
      "##ῶ": 3968,
      "##♠": 3969,
      "##❢": 3970,
      "##❞": 3971,
      "##✷": 3972,
      "##✹": 3973,
      "##𝐿": 3974,
      "##≠": 3975,
      "##ﬀ": 3976,
      "##௓": 3977,
      "##ீ": 3978,
      "##℃": 3979,
      "##𝟑": 3980,
      "##𝟎": 3981,
      "##ù": 3982,
      "##˝": 3983,
      "##ᵈ": 3984,
      "##̃": 3985,
      "##𝜆": 3986,
      "##𝑈": 3987,
      "##𝑀": 3988,
      "##А": 3989,
      "##ǂ": 3990,
      "##𝒃": 3991,
      "##𝒖": 3992,
      "##𝒎": 3993,
      "##𝒏": 3994,
      "##Š": 3995,
      "##Τ": 3996,
      "##Î": 3997,
      "##⇑": 3998,
      "##≡": 3999,
      "##௜": 4000,
      "##▼": 4001,
      "##÷": 4002,
      "##𝑆": 4003,
      "##ế": 4004,
      "##□": 4005,
      "##ἱ": 4006,
      "##ő": 4007,
      "##م": 4008,
      "##ῑ": 4009,
      "##√": 4010,
      "##▪": 4011,
      "##⁴": 4012,
      "##б": 4013,
      "##ˉ": 4014,
      "##ص": 4015,
      "##ع": 4016,
      "##ூ": 4017,
      "##஼": 4018,
      "##ோ": 4019,
      "##௎": 4020,
      "##✸": 4021,
      "##ệ": 4022,
      "##Α": 4023,
      "##С": 4024,
      "##ݬ": 4025,
      "##𝑋": 4026,
      "##͕": 4027,
      "##𝐈": 4028,
      "##𝐍": 4029,
      "##𝟐": 4030,
      "##∅": 4031,
      "##̔": 4032,
      "##◊": 4033,
      "##ř": 4034,
      "##⎢": 4035,
      "##𝐏": 4036,
      "##û": 4037,
      "##Π": 4038,
      "##Κ": 4039,
      "##ī": 4040,
      "##ر": 4041,
      "##ف": 4042,
      "##⊥": 4043,
      "##⁷": 4044,
      "##ﾟ": 4045,
      "##Ǉ": 4046,
      "##Ŧ": 4047,
      "##Ƶ": 4048,
      "##Ń": 4049,
      "##ϰ": 4050,
      "##∂": 4051,
      "##Η": 4052,
      "##ї": 4053,
      "##з": 4054,
      "##Ë": 4055,
      "##ᾶ": 4056,
      "##Ő": 4057,
      "##Ĩ": 4058,
      "##ƺ": 4059,
      "##ƌ": 4060,
      "##Ɵ": 4061,
      "##Ύ": 4062,
      "##Ě": 4063,
      "##←": 4064,
      "##̧": 4065,
      "##ŏ": 4066,
      "##ῳ": 4067,
      "##￪": 4068,
      "##Β": 4069,
      "##⃝": 4070,
      "##ὰ": 4071,
      "##₄": 4072,
      "##ὀ": 4073,
      "##ଶ": 4074,
      "##ش": 4075,
      "##خ": 4076,
      "##𝟒": 4077,
      "##𝟖": 4078,
      "##⁵": 4079,
      "##↵": 4080,
      "##İ": 4081,
      "##¦": 4082,
      "##ợ": 4083,
      "##⏐": 4084,
      "##ῦ": 4085,
      "##₀": 4086,
      "##Ś": 4087,
      "##ͬ": 4088,
      "##Ɛ": 4089,
      "##ே": 4090,
      "##ذ": 4091,
      "##Ñ": 4092,
      "##Ơ": 4093,
      "##½": 4094,
      "##⩾": 4095,
      "##Χ": 4096,
      "##Ϳ": 4097,
      "##ǌ": 4098,
      "##ῷ": 4099,
      "##▫": 4100,
      "##Ú": 4101,
      "##೘": 4102,
      "##ೠ": 4103,
      "##ೝ": 4104,
      "##೔": 4105,
      "##೙": 4106,
      "##⇈": 4107,
      "##˟": 4108,
      "##ˇ": 4109,
      "##ț": 4110,
      "##∩": 4111,
      "##я": 4112,
      "##ĸ": 4113,
      "##Į": 4114,
      "##∝": 4115,
      "##✉": 4116,
      "##❣": 4117,
      "##③": 4118,
      "##ᵅ": 4119,
      "##ό": 4120,
      "##ə": 4121,
      "##Û": 4122,
      "##ب": 4123,
      "##ͣ": 4124,
      "##𝑬": 4125,
      "##Ĺ": 4126,
      "##ɪ": 4127,
      "##ȹ": 4128,
      "##𝐱": 4129,
      "##𝐬": 4130,
      "##𝐢": 4131,
      "##𝐯": 4132,
      "##𝐟": 4133,
      "##𝐡": 4134,
      "##ء": 4135,
      "##𝑳": 4136,
      "##∏": 4137,
      "##п": 4138,
      "##њ": 4139,
      "##ǔ": 4140,
      "##ῆ": 4141,
      "##ȏ": 4142,
      "##⇧": 4143,
      "##ĉ": 4144,
      "##୥": 4145,
      "##►": 4146,
      "##Ⓡ": 4147,
      "##൰": 4148,
      "##❔": 4149,
      "##⇔": 4150,
      "##ͷ": 4151,
      "##☨": 4152,
      "##Æ": 4153,
      "##ŵ": 4154,
      "##Ƙ": 4155,
      "##ţ": 4156,
      "##į": 4157,
      "##Ʃ": 4158,
      "##ὐ": 4159,
      "##☞": 4160,
      "##ǚ": 4161,
      "##و": 4162,
      "##ा": 4163,
      "##ड": 4164,
      "##ि": 4165,
      "##᾿": 4166,
      "##⟵": 4167,
      "##⟶": 4168,
      "##෩": 4169,
      "##Ɖ": 4170,
      "##ଵ": 4171,
      "##ь": 4172,
      "##𝑗": 4173,
      "##͍": 4174,
      "##͘": 4175,
      "##ȳ": 4176,
      "##ễ": 4177,
      "##𝟗": 4178,
      "##И": 4179,
      "##К": 4180,
      "##𝛥": 4181,
      "##⨁": 4182,
      "##◯": 4183,
      "##₅": 4184,
      "##𝑌": 4185,
      "##≅": 4186,
      "##ǻ": 4187,
      "##д": 4188,
      "##𝑊": 4189,
      "##✴": 4190,
      "##أ": 4191,
      "##∶": 4192,
      "##█": 4193,
      "##ọ": 4194,
      "##ʳ": 4195,
      "##ķ": 4196,
      "##𝒄": 4197,
      "##𝒉": 4198,
      "##ĕ": 4199,
      "##𝟏": 4200,
      "##ƍ": 4201,
      "##ز": 4202,
      "##𝟓": 4203,
      "##⊢": 4204,
      "##₸": 4205,
      "##▲": 4206,
      "##ả": 4207,
      "##О": 4208,
      "##Ī": 4209,
      "##̊": 4210,
      "##𝒈": 4211,
      "##𝒌": 4212,
      "##ً": 4213,
      "##⊕": 4214,
      "##೓": 4215,
      "##ೌ": 4216,
      "##ⁿ": 4217,
      "##⅓": 4218,
      "##೜": 4219,
      "##ು": 4220,
      "##಴": 4221,
      "##ೃ": 4222,
      "##Ƃ": 4223,
      "##Γ": 4224,
      "##️": 4225,
      "##ĺ": 4226,
      "##∕": 4227,
      "##Ó": 4228,
      "##✅": 4229,
      "##͵": 4230,
      "##❜": 4231,
      "##ـ": 4232,
      "##👩": 4233,
      "##👦": 4234,
      "##👨": 4235,
      "##👧": 4236,
      "##𝒙": 4237,
      "##𝒑": 4238,
      "##𝒇": 4239,
      "##ɣ": 4240,
      "##̲": 4241,
      "##∈": 4242,
      "##▴": 4243,
      "##⩺": 4244,
      "##𝜖": 4245,
      "##ŷ": 4246,
      "##ϳ": 4247,
      "##ϵ": 4248,
      "##ḱ": 4249,
      "##𝐵": 4250,
      "##𝐾": 4251,
      "##ĭ": 4252,
      "##✽": 4253,
      "##ǎ": 4254,
      "##ῖ": 4255,
      "##⇐": 4256,
      "##˘": 4257,
      "##❦": 4258,
      "##Ͷ": 4259,
      "##が": 4260,
      "##𝒛": 4261,
      "##ɤ": 4262,
      "##ἴ": 4263,
      "##▄": 4264,
      "##ₒ": 4265,
      "##ି": 4266,
      "##௱": 4267,
      "##ὸ": 4268,
      "##ƒ": 4269,
      "##ǒ": 4270,
      "##ũ": 4271,
      "##Ξ": 4272,
      "##⊚": 4273,
      "##ё": 4274,
      "##௧": 4275,
      "##ʁ": 4276,
      "##♯": 4277,
      "##ꙸ": 4278,
      "##̴": 4279,
      "##௘": 4280,
      "##௚": 4281,
      "##௨": 4282,
      "##௡": 4283,
      "##ӳ": 4284,
      "##є": 4285,
      "##￬": 4286,
      "##ṓ": 4287,
      "##ح": 4288,
      "##𝜋": 4289,
      "##☼": 4290,
      "##┐": 4291,
      "##௛": 4292,
      "##௠": 4293,
      "##௔": 4294,
      "##ᶠ": 4295,
      "##⋆": 4296,
      "##̛": 4297,
      "##̒": 4298,
      "##𝐦": 4299,
      "##௥": 4300,
      "##௖": 4301,
      "##ቁ": 4302,
      "##✌": 4303,
      "##✎": 4304,
      "##்": 4305,
      "##ை": 4306,
      "##ư": 4307,
      "##ờ": 4308,
      "##∧": 4309,
      "##ϭ": 4310,
      "##≔": 4311,
      "##ф": 4312,
      "##𝑕": 4313,
      "##ܤ": 4314,
      "##⃗": 4315,
      "##ሻ": 4316,
      "##ೋ": 4317,
      "##ಸ": 4318,
      "##ಹ": 4319,
      "##಼": 4320,
      "##𝐋": 4321,
      "##𝐕": 4322,
      "##𝐎": 4323,
      "##𝐓": 4324,
      "##¾": 4325,
      "##া": 4326,
      "##য়": 4327,
      "##𝑍": 4328,
      "##ẵ": 4329,
      "##ଽ": 4330,
      "##଼": 4331,
      "##ௌ": 4332,
      "##ெ": 4333,
      "##஺": 4334,
      "##𝑞": 4335,
      "##Ć": 4336,
      "##ᾰ": 4337,
      "##Ќ": 4338,
      "##ɶ": 4339,
      "##𝐅": 4340,
      "##Λ": 4341,
      "##ى": 4342,
      "##☺": 4343,
      "##͛": 4344,
      "##⇢": 4345,
      "##❏": 4346,
      "##₆": 4347,
      "##▵": 4348,
      "##Ê": 4349,
      "##ﬄ": 4350,
      "##ϒ": 4351,
      "##⎝": 4352,
      "##ௗ": 4353,
      "##௢": 4354,
      "##௦": 4355,
      "##ق": 4356,
      "##ͳ": 4357,
      "##𝜂": 4358,
      "##ˣ": 4359,
      "##⊖": 4360,
      "##✇": 4361,
      "##ֿ": 4362,
      "##ϊ": 4363,
      "##Ȟ": 4364,
      "##ʌ": 4365,
      "##⎦": 4366,
      "##ŕ": 4367,
      "##Ї": 4368,
      "##✈": 4369,
      "##ط": 4370,
      "##ൣ": 4371,
      "##⩽": 4372,
      "##ș": 4373,
      "##ж": 4374,
      "##ئ": 4375,
      "##Ω": 4376,
      "##̌": 4377,
      "##ᶜ": 4378,
      "##𝑶": 4379,
      "##𝑭": 4380,
      "##ᾱ": 4381,
      "##⃰": 4382,
      "##ﬃ": 4383,
      "##𝑄": 4384,
      "##ȓ": 4385,
      "##͌": 4386,
      "##ӕ": 4387,
      "##░": 4388,
      "##⅔": 4389,
      "##Ώ": 4390,
      "##І": 4391,
      "##ᵃ": 4392,
      "##┴": 4393,
      "##🧪": 4394,
      "##Ͳ": 4395,
      "##↗": 4396,
      "##Л": 4397,
      "##ơ": 4398,
      "##▸": 4399,
      "##ʏ": 4400,
      "##ʀ": 4401,
      "##お": 4402,
      "##け": 4403,
      "##る": 4404,
      "##ラ": 4405,
      "##ン": 4406,
      "##ケ": 4407,
      "##ₑ": 4408,
      "##ּ": 4409,
      "##ὑ": 4410,
      "##Ù": 4411,
      "##➙": 4412,
      "##┬": 4413,
      "##೚": 4414,
      "##೟": 4415,
      "##೗": 4416,
      "##೐": 4417,
      "##൧": 4418,
      "##ݐ": 4419,
      "##ݏ": 4420,
      "##ݎ": 4421,
      "##𝑽": 4422,
      "##ȟ": 4423,
      "##Ф": 4424,
      "##Ȉ": 4425,
      "##ῲ": 4426,
      "##غ": 4427,
      "##ث": 4428,
      "##ю": 4429,
      "##⍺": 4430,
      "##ͭ": 4431,
      "##₊": 4432,
      "##ỳ": 4433,
      "##Ϭ": 4434,
      "##͖": 4435,
      "##𝟕": 4436,
      "##▿": 4437,
      "##͹": 4438,
      "##ἶ": 4439,
      "##ỏ": 4440,
      "##Ш": 4441,
      "##Ϯ": 4442,
      "##𝛾": 4443,
      "##☆": 4444,
      "##☵": 4445,
      "##☯": 4446,
      "##ḥ": 4447,
      "##ス": 4448,
      "##฀": 4449,
      "##ἰ": 4450,
      "##★": 4451,
      "##✺": 4452,
      "##✔": 4453,
      "##⊽": 4454,
      "##𝑯": 4455,
      "##𝑰": 4456,
      "##𝑼": 4457,
      "##𝒅": 4458,
      "##ű": 4459,
      "##ấ": 4460,
      "##💡": 4461,
      "##∊": 4462,
      "##ͺ": 4463,
      "##ņ": 4464,
      "##↘": 4465,
      "##ל": 4466,
      "##≦": 4467,
      "##୩": 4468,
      "##Ȓ": 4469,
      "##˃": 4470,
      "##ҫ": 4471,
      "##٠": 4472,
      "##┘": 4473,
      "##ὲ": 4474,
      "##𝟔": 4475,
      "##୙": 4476,
      "##୬": 4477,
      "##ୢ": 4478,
      "##ୣ": 4479,
      "##୰": 4480,
      "##୭": 4481,
      "##ୱ": 4482,
      "##ୟ": 4483,
      "##˂": 4484,
      "##В": 4485,
      "##⊝": 4486,
      "##𝑨": 4487,
      "##≫": 4488,
      "##∇": 4489,
      "##ⁱ": 4490,
      "##ƞ": 4491,
      "##➔": 4492,
      "##☑": 4493,
      "##ὗ": 4494,
      "##Т": 4495,
      "##𝛽": 4496,
      "##ϯ": 4497,
      "##М": 4498,
      "##Щ": 4499,
      "##Ь": 4500,
      "##ま": 4501,
      "##⇥": 4502,
      "##ẹ": 4503,
      "##═": 4504,
      "##Č": 4505,
      "##ௐ": 4506,
      "##ϲ": 4507,
      "##♢": 4508,
      "##ˢ": 4509,
      "##∫": 4510,
      "##𝜇": 4511,
      "##𝑻": 4512,
      "##𝐂": 4513,
      "##ḉ": 4514,
      "##Ý": 4515,
      "##⑨": 4516,
      "##⇗": 4517,
      "##௫": 4518,
      "##ష": 4519,
      "##൫": 4520,
      "##ഀ": 4521,
      "##ವ": 4522,
      "##శ": 4523,
      "##ഁ": 4524,
      "##మ": 4525,
      "##ť": 4526,
      "##ŋ": 4527,
      "##ủ": 4528,
      "##Ď": 4529,
      "##ℓ": 4530,
      "##₈": 4531,
      "##᾽": 4532,
      "##ˋ": 4533,
      "##ϱ": 4534,
      "##Ƣ": 4535,
      "##̥": 4536,
      "##ʧ": 4537,
      "##✱": 4538,
      "##ِ": 4539,
      "##П": 4540,
      "##ồ": 4541,
      "##ṭ": 4542,
      "##˖": 4543,
      "##ử": 4544,
      "##△": 4545,
      "##̓": 4546,
      "##⎜": 4547,
      "##͜": 4548,
      "##ộ": 4549,
      "##𝒘": 4550,
      "##ᵒ": 4551,
      "##ா": 4552,
      "##✻": 4553,
      "##➠": 4554,
      "##ิ": 4555,
      "##บ": 4556,
      "##เ": 4557,
      "##ส": 4558,
      "##้": 4559,
      "##น": 4560,
      "##஽": 4561,
      "##ା": 4562,
      "##ఉ": 4563,
      "##⎛": 4564,
      "##👉": 4565,
      "##ׅ": 4566,
      "##プ": 4567,
      "##ȅ": 4568,
      "##י": 4569,
      "##ת": 4570,
      "##௟": 4571,
      "##﷓": 4572,
      "##◌": 4573,
      "##ᵥ": 4574,
      "##↙": 4575,
      "##͂": 4576,
      "##▂": 4577,
      "##ʦ": 4578,
      "##𝒚": 4579,
      "##ὁ": 4580,
      "##൬": 4581,
      "##◉": 4582,
      "##೏": 4583,
      "##೒": 4584,
      "##◀": 4585,
      "##ቆ": 4586,
      "##ǜ": 4587,
      "##や": 4588,
      "##も": 4589,
      "##ΐ": 4590,
      "##し": 4591,
      "##┼": 4592,
      "##Ӕ": 4593,
      "##έ": 4594,
      "##▓": 4595,
      "##ₐ": 4596,
      "##ে": 4597,
      "##ব": 4598,
      "##র": 4599,
      "##্": 4600,
      "##ষ": 4601,
      "##ি": 4602,
      "##ố": 4603,
      "##ɸ": 4604,
      "##௩": 4605,
      "##ʊ": 4606,
      "##▾": 4607,
      "##ٰ": 4608,
      "##⇨": 4609,
      "##ἵ": 4610,
      "##❚": 4611,
      "##Х": 4612,
      "##ϐ": 4613,
      "##ɔ": 4614,
      "##ಿ": 4615,
      "##ೄ": 4616,
      "##ȃ": 4617,
      "##ǧ": 4618,
      "##✘": 4619,
      "##ẞ": 4620,
      "##ɥ": 4621,
      "##ؘ": 4622,
      "##ඥ": 4623,
      "##ఘ": 4624,
      "##ᵏ": 4625,
      "##ǽ": 4626,
      "##స": 4627,
      "##భ": 4628,
      "##◄": 4629,
      "##ἠ": 4630,
      "##Д": 4631,
      "##ு": 4632,
      "##௄": 4633,
      "##☃": 4634,
      "##Ế": 4635,
      "##΅": 4636,
      "##і": 4637,
      "##ש": 4638,
      "##מ": 4639,
      "##⎥": 4640,
      "##̯": 4641,
      "##˛": 4642,
      "##∨": 4643,
      "##ų": 4644,
      "##ἷ": 4645,
      "##ʈ": 4646,
      "##▬": 4647,
      "##₤": 4648,
      "##▭": 4649,
      "##⟡": 4650,
      "##ḵ": 4651,
      "##ṯ": 4652,
      "##ά": 4653,
      "##̉": 4654,
      "##ȇ": 4655,
      "##⇩": 4656,
      "##ٲ": 4657,
      "##ర": 4658,
      "##Я": 4659,
      "##ୀ": 4660,
      "##ữ": 4661,
      "##en": 4662,
      "##er": 4663,
      "##ch": 4664,
      "##in": 4665,
      "##ei": 4666,
      "##un": 4667,
      "##on": 4668,
      "##ti": 4669,
      "##ie": 4670,
      "##ung": 4671,
      "##es": 4672,
      "##ra": 4673,
      "##nd": 4674,
      "##te": 4675,
      "##al": 4676,
      "##is": 4677,
      "##ter": 4678,
      "##ten": 4679,
      "##ll": 4680,
      "##or": 4681,
      "##it": 4682,
      "der": 4683,
      "##ur": 4684,
      "##ich": 4685,
      "##ar": 4686,
      "##ge": 4687,
      "##st": 4688,
      "und": 4689,
      "##ati": 4690,
      "##om": 4691,
      "##ein": 4692,
      "ein": 4693,
      "##an": 4694,
      "##us": 4695,
      "##uf": 4696,
      "##gen": 4697,
      "in": 4698,
      "##as": 4699,
      "##ä": 4700,
      "##ro": 4701,
      "##ik": 4702,
      "##de": 4703,
      "die": 4704,
      "##ier": 4705,
      "##ech": 4706,
      "##um": 4707,
      "##ach": 4708,
      "##sch": 4709,
      "Be": 4710,
      "##el": 4711,
      "##ts": 4712,
      "##den": 4713,
      "##ig": 4714,
      "mit": 4715,
      "##ation": 4716,
      "##der": 4717,
      "##isch": 4718,
      "##se": 4719,
      "##hr": 4720,
      "##at": 4721,
      "##em": 4722,
      "##lich": 4723,
      "##ol": 4724,
      "20": 4725,
      "Kein": 4726,
      "##et": 4727,
      "##ber": 4728,
      "##wei": 4729,
      "Ver": 4730,
      "##di": 4731,
      "##il": 4732,
      "##kt": 4733,
      "##eich": 4734,
      "##tra": 4735,
      "##ul": 4736,
      "##ph": 4737,
      "##uch": 4738,
      "von": 4739,
      "##eil": 4740,
      "##re": 4741,
      "bei": 4742,
      "##ü": 4743,
      "im": 4744,
      "##am": 4745,
      "des": 4746,
      "##ungen": 4747,
      "##nter": 4748,
      "##tion": 4749,
      "##ben": 4750,
      "##la": 4751,
      "##und": 4752,
      "vom": 4753,
      "##tell": 4754,
      "An": 4755,
      "##men": 4756,
      "##ut": 4757,
      "##ora": 4758,
      "In": 4759,
      "##icht": 4760,
      "##sen": 4761,
      "201": 4762,
      "##eit": 4763,
      "auf": 4764,
      "##and": 4765,
      "##teil": 4766,
      "##ne": 4767,
      "##na": 4768,
      "er": 4769,
      "##og": 4770,
      "##op": 4771,
      "##ck": 4772,
      "##lin": 4773,
      "##le": 4774,
      "St": 4775,
      "rech": 4776,
      "##ink": 4777,
      "ver": 4778,
      "##ir": 4779,
      "##ges": 4780,
      "##ek": 4781,
      "##os": 4782,
      "Fra": 4783,
      "eine": 4784,
      "##ver": 4785,
      "Keine": 4786,
      "Sch": 4787,
      "##ab": 4788,
      "den": 4789,
      "##ell": 4790,
      "kein": 4791,
      "einer": 4792,
      "##her": 4793,
      "##ent": 4794,
      "##ö": 4795,
      "Die": 4796,
      "link": 4797,
      "nach": 4798,
      "##ikation": 4799,
      "##ungs": 4800,
      "##fund": 4801,
      "zu": 4802,
      "Nach": 4803,
      "##weis": 4804,
      "Er": 4805,
      "##tellung": 4806,
      "##len": 4807,
      "##fer": 4808,
      "so": 4809,
      "##ls": 4810,
      "##ale": 4811,
      "##urteil": 4812,
      "Ein": 4813,
      "##urch": 4814,
      "##si": 4815,
      "an": 4816,
      "##gl": 4817,
      "##ran": 4818,
      "Befund": 4819,
      "ist": 4820,
      "Ab": 4821,
      "das": 4822,
      "rechts": 4823,
      "vor": 4824,
      "nicht": 4825,
      "##ym": 4826,
      "##pl": 4827,
      "oder": 4828,
      "##ot": 4829,
      "##ür": 4830,
      "links": 4831,
      "##ischen": 4832,
      "##ru": 4833,
      "##ap": 4834,
      "##nah": 4835,
      "##ger": 4836,
      "Unter": 4837,
      "##och": 4838,
      "Klin": 4839,
      "##ed": 4840,
      "##such": 4841,
      "##ri": 4842,
      "##enz": 4843,
      "Beurteil": 4844,
      "sich": 4845,
      "Pati": 4846,
      "##hora": 4847,
      "##nt": 4848,
      "##per": 4849,
      "##eg": 4850,
      "##bar": 4851,
      "Beurteilung": 4852,
      "##är": 4853,
      "##rei": 4854,
      "Klinik": 4855,
      "##tigen": 4856,
      "##erden": 4857,
      "##eits": 4858,
      "##ste": 4859,
      "##sp": 4860,
      "##alen": 4861,
      "##me": 4862,
      "##he": 4863,
      "##ische": 4864,
      "Kon": 4865,
      "Nachweis": 4866,
      "##horax": 4867,
      "##end": 4868,
      "##ef": 4869,
      "##nder": 4870,
      "##au": 4871,
      "10": 4872,
      "##ag": 4873,
      "##enten": 4874,
      "Ind": 4875,
      "##orm": 4876,
      "##iert": 4877,
      "werden": 4878,
      "##rech": 4879,
      "##eh": 4880,
      "##gleich": 4881,
      "##uss": 4882,
      "durch": 4883,
      "##ieren": 4884,
      "##gel": 4885,
      "##hal": 4886,
      "##ose": 4887,
      "Indikation": 4888,
      "Pro": 4889,
      "##ff": 4890,
      "##ind": 4891,
      "##ok": 4892,
      "##ktur": 4893,
      "##ast": 4894,
      "##ativ": 4895,
      "##ogra": 4896,
      "##iegen": 4897,
      "##ser": 4898,
      "##ds": 4899,
      "für": 4900,
      "##liche": 4901,
      "##nen": 4902,
      "zur": 4903,
      "keine": 4904,
      "aus": 4905,
      "kon": 4906,
      "Auf": 4907,
      "##gt": 4908,
      "Inf": 4909,
      "##zi": 4910,
      "##ann": 4911,
      "##olog": 4912,
      "Frages": 4913,
      "Patienten": 4914,
      "##ft": 4915,
      "wur": 4916,
      "Fragestellung": 4917,
      "##tfer": 4918,
      "##sion": 4919,
      "##ktion": 4920,
      "##tfertigen": 4921,
      "##ien": 4922,
      "##tfertigende": 4923,
      "CT": 4924,
      "Im": 4925,
      "##tisch": 4926,
      "##kl": 4927,
      "##pp": 4928,
      "##est": 4929,
      "##herap": 4930,
      "Vergleich": 4931,
      "##ss": 4932,
      "##lle": 4933,
      "zum": 4934,
      "als": 4935,
      "Sp": 4936,
      "Rech": 4937,
      "##erz": 4938,
      "##ograph": 4939,
      "##ahr": 4940,
      "Re": 4941,
      "##ing": 4942,
      "##wie": 4943,
      "##tiv": 4944,
      "mm": 4945,
      "##geb": 4946,
      "##ial": 4947,
      "##AM": 4948,
      "auch": 4949,
      "##ang": 4950,
      "##tel": 4951,
      "##ub": 4952,
      "##ild": 4953,
      "##ät": 4954,
      "NAM": 4955,
      "NAME": 4956,
      "unter": 4957,
      "##fä": 4958,
      "Thorax": 4959,
      "##id": 4960,
      "##ert": 4961,
      "##gr": 4962,
      "Untersuch": 4963,
      "ab": 4964,
      "sch": 4965,
      "12": 4966,
      "##keit": 4967,
      "##ufnah": 4968,
      "##ogen": 4969,
      "##eu": 4970,
      "##ehr": 4971,
      "Ar": 4972,
      "dem": 4973,
      "bis": 4974,
      "ge": 4975,
      "##ige": 4976,
      "##tig": 4977,
      "Rechtfertigende": 4978,
      "sowie": 4979,
      "##herapie": 4980,
      "##th": 4981,
      "##ak": 4982,
      "##ign": 4983,
      "##edi": 4984,
      "##lauf": 4985,
      "##bl": 4986,
      "Vor": 4987,
      "##är": 4988,
      "##hne": 4989,
      "un": 4990,
      "11": 4991,
      "be": 4992,
      "wir": 4993,
      "##ase": 4994,
      "sind": 4995,
      "##ah": 4996,
      "re": 4997,
      "##be": 4998,
      "##qu": 4999,
      "##zt": 5000,
      "Le": 5001,
      "##eiter": 5002,
      "##rö": 5003,
      "##rä": 5004,
      "##ort": 5005,
      "##tik": 5006,
      "##zin": 5007,
      "##ant": 5008,
      "ohne": 5009,
      "##llig": 5010,
      "##röß": 5011,
      "##ater": 5012,
      "##neum": 5013,
      "Bei": 5014,
      "##ep": 5015,
      "##ektion": 5016,
      "##änder": 5017,
      "##ierung": 5018,
      "Di": 5019,
      "Aus": 5020,
      "##ont": 5021,
      "##xi": 5022,
      "##cken": 5023,
      "eines": 5024,
      "##od": 5025,
      "Vora": 5026,
      "##nauf": 5027,
      "##dem": 5028,
      "##dom": 5029,
      "##glich": 5030,
      "am": 5031,
      "##llen": 5032,
      "##ymph": 5033,
      "##yp": 5034,
      "##gelrech": 5035,
      "##iltra": 5036,
      "ges": 5037,
      "##nis": 5038,
      "bes": 5039,
      "##ittel": 5040,
      "##nauffä": 5041,
      "##fl": 5042,
      "##ese": 5043,
      "##ven": 5044,
      "##ara": 5045,
      "Voraufnah": 5046,
      "##no": 5047,
      "##eichen": 5048,
      "##all": 5049,
      "##aren": 5050,
      "Dar": 5051,
      "##rank": 5052,
      "Infiltra": 5053,
      "##dseits": 5054,
      "intra": 5055,
      "##sten": 5056,
      "##hen": 5057,
      "Lymph": 5058,
      "st": 5059,
      "##ographie": 5060,
      "##ath": 5061,
      "19": 5062,
      "um": 5063,
      "##ura": 5064,
      "##ör": 5065,
      "wurde": 5066,
      "##ob": 5067,
      "##mm": 5068,
      "##ark": 5069,
      "##age": 5070,
      "Ber": 5071,
      "##̈ber": 5072,
      "##pf": 5073,
      "wird": 5074,
      "Bl": 5075,
      "##benen": 5076,
      "200": 5077,
      "dass": 5078,
      "##yste": 5079,
      "##roß": 5080,
      "##fol": 5081,
      "über": 5082,
      "##stellung": 5083,
      "zwei": 5084,
      "##wer": 5085,
      "wie": 5086,
      "##aler": 5087,
      "MR": 5088,
      "Met": 5089,
      "##bel": 5090,
      "cm": 5091,
      "##WK": 5092,
      "##ür": 5093,
      "Ne": 5094,
      "##ierte": 5095,
      "##ib": 5096,
      "##eiten": 5097,
      "Ra": 5098,
      "Fl": 5099,
      "##ühr": 5100,
      "##ekt": 5101,
      "beidseits": 5102,
      "de": 5103,
      "##tis": 5104,
      "##for": 5105,
      "##ion": 5106,
      "Stu": 5107,
      "einem": 5108,
      "##oh": 5109,
      "##ess": 5110,
      "pro": 5111,
      "##lichen": 5112,
      "Fraktur": 5113,
      "##ität": 5114,
      "Untersuchung": 5115,
      "##aus": 5116,
      "##ellen": 5117,
      "Es": 5118,
      "Herz": 5119,
      "##enk": 5120,
      "##liegen": 5121,
      "##bes": 5122,
      "##schl": 5123,
      "et": 5124,
      "für": 5125,
      "##dien": 5126,
      "fr": 5127,
      "##wi": 5128,
      "groß": 5129,
      "Voraufnahmen": 5130,
      "Leber": 5131,
      "Kn": 5132,
      "##if": 5133,
      "per": 5134,
      "##guss": 5135,
      "##ormal": 5136,
      "##rä": 5137,
      "##zen": 5138,
      "##tet": 5139,
      "##ppen": 5140,
      "ent": 5141,
      "##ere": 5142,
      "zei": 5143,
      "##ör": 5144,
      "03": 5145,
      "##halt": 5146,
      "##plikation": 5147,
      "es": 5148,
      "##agn": 5149,
      "Verlauf": 5150,
      "##än": 5151,
      "##igen": 5152,
      "##ist": 5153,
      "##amm": 5154,
      "##che": 5155,
      "Ebenen": 5156,
      "##nik": 5157,
      "##ost": 5158,
      "Abdom": 5159,
      "##alis": 5160,
      "ger": 5161,
      "##eren": 5162,
      "Pneum": 5163,
      "Zu": 5164,
      "Ch": 5165,
      "##noten": 5166,
      "Ges": 5167,
      "##sti": 5168,
      "##lenk": 5169,
      "Therapie": 5170,
      "frei": 5171,
      "##isik": 5172,
      "##iz": 5173,
      "ca": 5174,
      "kann": 5175,
      "##igkeit": 5176,
      "##inder": 5177,
      "##leura": 5178,
      "Nieren": 5179,
      "Jahr": 5180,
      "##gelenk": 5181,
      "##gra": 5182,
      "##lung": 5183,
      "weiter": 5184,
      "##forder": 5185,
      "15": 5186,
      "##oll": 5187,
      "Abdomen": 5188,
      "##ön": 5189,
      "##ischer": 5190,
      "##ative": 5191,
      "Per": 5192,
      "##opf": 5193,
      "##mon": 5194,
      "##stand": 5195,
      "##ment": 5196,
      "##lein": 5197,
      "Blut": 5198,
      "##son": 5199,
      "wurden": 5200,
      "##res": 5201,
      "##pro": 5202,
      "##lter": 5203,
      "##ierten": 5204,
      "Kom": 5205,
      "Hin": 5206,
      "##oren": 5207,
      "##äß": 5208,
      "##itt": 5209,
      "##onder": 5210,
      "##ank": 5211,
      "##äsion": 5212,
      "##aten": 5213,
      "##uß": 5214,
      "##WS": 5215,
      "##sk": 5216,
      "Becken": 5217,
      "Pleura": 5218,
      "##gan": 5219,
      "##ic": 5220,
      "einen": 5221,
      "13": 5222,
      "##asen": 5223,
      "01": 5224,
      "##knoten": 5225,
      "##itä": 5226,
      "##zu": 5227,
      "##atisch": 5228,
      "##klär": 5229,
      "##tsp": 5230,
      "ex": 5231,
      "sp": 5232,
      "##hand": 5233,
      "##amt": 5234,
      "##dr": 5235,
      "Son": 5236,
      "kom": 5237,
      "##uell": 5238,
      "05": 5239,
      "09": 5240,
      "##iel": 5241,
      "##schie": 5242,
      "##fra": 5243,
      "Wir": 5244,
      "##iger": 5245,
      "##we": 5246,
      "Ent": 5247,
      "Der": 5248,
      "##erung": 5249,
      "14": 5250,
      "##ern": 5251,
      "##entra": 5252,
      "De": 5253,
      "##ulmon": 5254,
      "en": 5255,
      "Lymphknoten": 5256,
      "kön": 5257,
      "Lungen": 5258,
      "08": 5259,
      "##merz": 5260,
      "07": 5261,
      "Risik": 5262,
      "##pt": 5263,
      "##aterial": 5264,
      "vorliegen": 5265,
      "##rem": 5266,
      "06": 5267,
      "liegen": 5268,
      "unauffä": 5269,
      "##amn": 5270,
      "##tro": 5271,
      "Medi": 5272,
      "##äre": 5273,
      "##aben": 5274,
      "16": 5275,
      "02": 5276,
      "##etz": 5277,
      "Das": 5278,
      "##chym": 5279,
      "##gebnis": 5280,
      "##entr": 5281,
      "04": 5282,
      "##agen": 5283,
      "##größ": 5284,
      "Darstellung": 5285,
      "Dr": 5286,
      "##arenchym": 5287,
      "Gef": 5288,
      "##unktion": 5289,
      "bds": 5290,
      "##rie": 5291,
      "##unter": 5292,
      "ml": 5293,
      "202": 5294,
      "dar": 5295,
      "##othorax": 5296,
      "##tz": 5297,
      "##usp": 5298,
      "18": 5299,
      "nur": 5300,
      "ber": 5301,
      "##fas": 5302,
      "all": 5303,
      "##ia": 5304,
      "Aufklär": 5305,
      "##gang": 5306,
      "##grenz": 5307,
      "Abb": 5308,
      "da": 5309,
      "Läsion": 5310,
      "##ma": 5311,
      "mehr": 5312,
      "##akt": 5313,
      "##alk": 5314,
      "##ze": 5315,
      "##änderungen": 5316,
      "##ide": 5317,
      "##zw": 5318,
      "Pleuraer": 5319,
      "über": 5320,
      "##krank": 5321,
      "medi": 5322,
      "##nung": 5323,
      "T2": 5324,
      "rechten": 5325,
      "##amnese": 5326,
      "Inter": 5327,
      "30": 5328,
      "Durch": 5329,
      "Pneumothorax": 5330,
      "Ober": 5331,
      "Patient": 5332,
      "Har": 5333,
      "17": 5334,
      "##tische": 5335,
      "Kopf": 5336,
      "Stau": 5337,
      "##mittel": 5338,
      "##mpf": 5339,
      "##ystem": 5340,
      "bet": 5341,
      "##als": 5342,
      "##ante": 5343,
      "##gef": 5344,
      "##gelrechte": 5345,
      "zw": 5346,
      "##atz": 5347,
      "gl": 5348,
      "##sor": 5349,
      "##gung": 5350,
      "##gesch": 5351,
      "##astin": 5352,
      "Ge": 5353,
      "##ys": 5354,
      "normal": 5355,
      "##enden": 5356,
      "##nahme": 5357,
      "##anz": 5358,
      "##ate": 5359,
      "##lage": 5360,
      "hin": 5361,
      "soll": 5362,
      "##tellt": 5363,
      "##kul": 5364,
      "Tra": 5365,
      "diese": 5366,
      "Kontra": 5367,
      "##ähr": 5368,
      "inter": 5369,
      "Infiltrate": 5370,
      "##rom": 5371,
      "erfol": 5372,
      "##tsprech": 5373,
      "##oper": 5374,
      "Meth": 5375,
      "Anhalt": 5376,
      "##öglich": 5377,
      "vergröß": 5378,
      "25": 5379,
      "##oph": 5380,
      "##üss": 5381,
      "##mer": 5382,
      "ins": 5383,
      "##usion": 5384,
      "##scha": 5385,
      "##ende": 5386,
      "Ex": 5387,
      "bzw": 5388,
      "##ht": 5389,
      "##las": 5390,
      "##onst": 5391,
      "##äuf": 5392,
      "##gte": 5393,
      "##abe": 5394,
      "##ral": 5395,
      "Un": 5396,
      "##zel": 5397,
      "00": 5398,
      "##tert": 5399,
      "##ors": 5400,
      "MRT": 5401,
      "klein": 5402,
      "##weit": 5403,
      "können": 5404,
      "##ens": 5405,
      "##ologie": 5406,
      "##umforder": 5407,
      "##auch": 5408,
      "sub": 5409,
      "##uspek": 5410,
      "di": 5411,
      "##sy": 5412,
      "##plant": 5413,
      "Li": 5414,
      "##ond": 5415,
      "##sse": 5416,
      "Mit": 5417,
      "##ationen": 5418,
      "Zus": 5419,
      "Harn": 5420,
      "deut": 5421,
      "##allen": 5422,
      "Tech": 5423,
      "ak": 5424,
      "Bes": 5425,
      "##isk": 5426,
      "unauffällig": 5427,
      "##yper": 5428,
      "##reich": 5429,
      "vorliegend": 5430,
      "##tem": 5431,
      "##aut": 5432,
      "neu": 5433,
      "##yse": 5434,
      "Ergebnis": 5435,
      "linken": 5436,
      "##ppe": 5437,
      "##ammen": 5438,
      "##omogen": 5439,
      "##iv": 5440,
      "Flüss": 5441,
      "sein": 5442,
      "##weise": 5443,
      "al": 5444,
      "##untersuch": 5445,
      "##zeichen": 5446,
      "T1": 5447,
      "##jektion": 5448,
      "##ner": 5449,
      "Or": 5450,
      "##etzt": 5451,
      "##ele": 5452,
      "##met": 5453,
      "##ruktur": 5454,
      "##chen": 5455,
      "wen": 5456,
      "Ap": 5457,
      "##arzin": 5458,
      "##ahl": 5459,
      "##llige": 5460,
      "zwischen": 5461,
      "##att": 5462,
      "##osi": 5463,
      "##äm": 5464,
      "DD": 5465,
      "##elle": 5466,
      "##ations": 5467,
      "Behand": 5468,
      "Bild": 5469,
      "##agnos": 5470,
      "sie": 5471,
      "##ffen": 5472,
      "hat": 5473,
      "##acht": 5474,
      "##ären": 5475,
      "##ochen": 5476,
      "##lager": 5477,
      "##edoch": 5478,
      "##bild": 5479,
      "##fal": 5480,
      "##opath": 5481,
      "Technik": 5482,
      "Ang": 5483,
      "Tum": 5484,
      "Bereich": 5485,
      "##ulti": 5486,
      "##ett": 5487,
      "##yl": 5488,
      "##arzinom": 5489,
      "##tre": 5490,
      "Veränderungen": 5491,
      "##sich": 5492,
      "##die": 5493,
      "erh": 5494,
      "##ardi": 5495,
      "ander": 5496,
      "KM": 5497,
      "Ph": 5498,
      "klin": 5499,
      "LWK": 5500,
      "Ger": 5501,
      "##mal": 5502,
      "##ontro": 5503,
      "Aufklärung": 5504,
      "Se": 5505,
      "##gener": 5506,
      "Uhr": 5507,
      "##willig": 5508,
      "bed": 5509,
      "Gr": 5510,
      "Über": 5511,
      "##tige": 5512,
      "##zie": 5513,
      "##ruck": 5514,
      "war": 5515,
      "Eine": 5516,
      "##wend": 5517,
      "dieser": 5518,
      "##ktuell": 5519,
      "##sych": 5520,
      "##rin": 5521,
      "21": 5522,
      "##halten": 5523,
      "Res": 5524,
      "##änd": 5525,
      "Gallen": 5526,
      "##blase": 5527,
      "##omie": 5528,
      "2014": 5529,
      "Einwillig": 5530,
      "##entrik": 5531,
      "noch": 5532,
      "jedoch": 5533,
      "hier": 5534,
      "24": 5535,
      "##ünd": 5536,
      "##tischen": 5537,
      "Regelrechte": 5538,
      "22": 5539,
      "##ankre": 5540,
      "Material": 5541,
      "Ak": 5542,
      "##ac": 5543,
      "##über": 5544,
      "2016": 5545,
      "Einwilligung": 5546,
      "Frage": 5547,
      "##thro": 5548,
      "##rim": 5549,
      "2017": 5550,
      "sign": 5551,
      "Neben": 5552,
      "2013": 5553,
      "##oden": 5554,
      "##oid": 5555,
      "##hin": 5556,
      "Verd": 5557,
      "##ikro": 5558,
      "Unauffä": 5559,
      "##ifik": 5560,
      "So": 5561,
      "2018": 5562,
      "##heit": 5563,
      "##licher": 5564,
      "2019": 5565,
      "2015": 5566,
      "beurteil": 5567,
      "2012": 5568,
      "Stauung": 5569,
      "##än": 5570,
      "##itis": 5571,
      "Oste": 5572,
      "##quenz": 5573,
      "Anamnese": 5574,
      "##veränder": 5575,
      "ihr": 5576,
      "##terien": 5577,
      "##li": 5578,
      "bek": 5579,
      "pulmon": 5580,
      "##wir": 5581,
      "##üsse": 5582,
      "Zustand": 5583,
      "regelrech": 5584,
      "Kontrast": 5585,
      "##zeit": 5586,
      "##oz": 5587,
      "Gefäß": 5588,
      "Sin": 5589,
      "##one": 5590,
      "Studien": 5591,
      "##rift": 5592,
      "##ruppe": 5593,
      "##vention": 5594,
      "Risiko": 5595,
      "##ieß": 5596,
      "##arb": 5597,
      "##ari": 5598,
      "Raumforder": 5599,
      "Läsionen": 5600,
      "##ken": 5601,
      "##elt": 5602,
      "post": 5603,
      "axi": 5604,
      "gerin": 5605,
      "##gre": 5606,
      "##essen": 5607,
      "##athe": 5608,
      "Pankre": 5609,
      "Schmerz": 5610,
      "##satz": 5611,
      "##are": 5612,
      "bas": 5613,
      "##rans": 5614,
      "##atheter": 5615,
      "##ondere": 5616,
      "##ule": 5617,
      "##fahr": 5618,
      "aber": 5619,
      "##grund": 5620,
      "##ruktion": 5621,
      "mal": 5622,
      "##untersuchung": 5623,
      "2010": 5624,
      "##tive": 5625,
      "ar": 5626,
      "Mittel": 5627,
      "##alt": 5628,
      "23": 5629,
      "je": 5630,
      "##brei": 5631,
      "##ontrolle": 5632,
      "##yn": 5633,
      "##tur": 5634,
      "##bung": 5635,
      "Applikation": 5636,
      "##schn": 5637,
      "##oc": 5638,
      "##etro": 5639,
      "Über": 5640,
      "2011": 5641,
      "##wert": 5642,
      "##arm": 5643,
      "zentra": 5644,
      "entsprech": 5645,
      "##ständ": 5646,
      "signifik": 5647,
      "Sonographie": 5648,
      "##hl": 5649,
      "##rü": 5650,
      "##erd": 5651,
      "Parenchym": 5652,
      "##schei": 5653,
      "##ox": 5654,
      "Mediastin": 5655,
      "Hinweis": 5656,
      "##ührt": 5657,
      "##itze": 5658,
      "##fraktur": 5659,
      "##drü": 5660,
      "Kor": 5661,
      "II": 5662,
      "##tern": 5663,
      "##nach": 5664,
      "beurteilbar": 5665,
      "etw": 5666,
      "Sub": 5667,
      "##üft": 5668,
      "Um": 5669,
      "Untersuchungs": 5670,
      "gew": 5671,
      "Station": 5672,
      "27": 5673,
      "empf": 5674,
      "##urz": 5675,
      "##ichte": 5676,
      "##ativen": 5677,
      "Mamm": 5678,
      "##lappen": 5679,
      "##erte": 5680,
      "##bens": 5681,
      "Kontro": 5682,
      "Gel": 5683,
      "##nte": 5684,
      "ax": 5685,
      "##ad": 5686,
      "##ologisch": 5687,
      "Mon": 5688,
      "##unde": 5689,
      "##gradi": 5690,
      "Zusammen": 5691,
      "##itte": 5692,
      "##güsse": 5693,
      "##umen": 5694,
      "##auf": 5695,
      "##anc": 5696,
      "2020": 5697,
      "##aden": 5698,
      "Studie": 5699,
      "gen": 5700,
      "##ptom": 5701,
      "##ass": 5702,
      "##kler": 5703,
      "peri": 5704,
      "##unden": 5705,
      "##CT": 5706,
      "rechtfertigende": 5707,
      "##tehen": 5708,
      "##los": 5709,
      "##schaft": 5710,
      "##geh": 5711,
      "##bi": 5712,
      "##ymptom": 5713,
      "Infiltrat": 5714,
      "ma": 5715,
      "2009": 5716,
      "##mus": 5717,
      "##sicht": 5718,
      "##seh": 5719,
      "Alter": 5720,
      "Mil": 5721,
      "Pankreas": 5722,
      "##ute": 5723,
      "Krank": 5724,
      "##wick": 5725,
      "##ün": 5726,
      "Pleuraerguss": 5727,
      "pneum": 5728,
      "##treten": 5729,
      "abgrenz": 5730,
      "26": 5731,
      "su": 5732,
      "##lei": 5733,
      "28": 5734,
      "50": 5735,
      "##ine": 5736,
      "##änder": 5737,
      "##erv": 5738,
      "gef": 5739,
      "##opathie": 5740,
      "##omp": 5741,
      "##hrom": 5742,
      "mö": 5743,
      "VA": 5744,
      "##örper": 5745,
      "##ression": 5746,
      "##ück": 5747,
      "##heits": 5748,
      "##ität": 5749,
      "##ranie": 5750,
      "Schild": 5751,
      "Projektion": 5752,
      "Weiter": 5753,
      "Deut": 5754,
      "##erten": 5755,
      "ne": 5756,
      "dors": 5757,
      "##odik": 5758,
      "##sehbar": 5759,
      "Ser": 5760,
      "##ären": 5761,
      "##ezi": 5762,
      "Hals": 5763,
      "##schluss": 5764,
      "##ock": 5765,
      "abgrenzbar": 5766,
      "##hlen": 5767,
      "Methodik": 5768,
      "ausge": 5769,
      "oss": 5770,
      "Gelenk": 5771,
      "Flüssigkeit": 5772,
      "zeigt": 5773,
      "häuf": 5774,
      "##br": 5775,
      "Daten": 5776,
      "##anten": 5777,
      "axial": 5778,
      "##falls": 5779,
      "Weich": 5780,
      "VU": 5781,
      "##ferenz": 5782,
      "##äre": 5783,
      "homogen": 5784,
      "Schw": 5785,
      "Hir": 5786,
      "Tab": 5787,
      "Sten": 5788,
      "##mun": 5789,
      "Teil": 5790,
      "##nachweis": 5791,
      "##abil": 5792,
      "##fä": 5793,
      "einsehbar": 5794,
      "TS": 5795,
      "##del": 5796,
      "##ierter": 5797,
      "##äß": 5798,
      "##bauch": 5799,
      "sel": 5800,
      "man": 5801,
      "Wirbel": 5802,
      "##terie": 5803,
      "fok": 5804,
      "##fig": 5805,
      "sollte": 5806,
      "haben": 5807,
      "lie": 5808,
      "##riftliche": 5809,
      "##ill": 5810,
      "Seg": 5811,
      "##änd": 5812,
      "OP": 5813,
      "##tech": 5814,
      "##ilde": 5815,
      "##geben": 5816,
      "##entrikel": 5817,
      "Qu": 5818,
      "40": 5819,
      "Hand": 5820,
      "Patientin": 5821,
      "##kalk": 5822,
      "##off": 5823,
      "##lu": 5824,
      "##rach": 5825,
      "Neur": 5826,
      "##tellen": 5827,
      "##fall": 5828,
      "##äm": 5829,
      "größ": 5830,
      "##hron": 5831,
      "##aris": 5832,
      "Blutung": 5833,
      "##ler": 5834,
      "Erkrank": 5835,
      "##über": 5836,
      "##krem": 5837,
      "##iere": 5838,
      "##besondere": 5839,
      "##ologische": 5840,
      "##art": 5841,
      "Radi": 5842,
      "##dick": 5843,
      "##ologischen": 5844,
      "##im": 5845,
      "##zep": 5846,
      "##igk": 5847,
      "sehr": 5848,
      "##igit": 5849,
      "Weichteil": 5850,
      "##siv": 5851,
      "kor": 5852,
      "Unauffällige": 5853,
      "Zeit": 5854,
      "Milz": 5855,
      "29": 5856,
      "Verlaufsk": 5857,
      "##annte": 5858,
      "##ätz": 5859,
      "Schilddrü": 5860,
      "Bek": 5861,
      "##kranie": 5862,
      "##ard": 5863,
      "##uten": 5864,
      "##kel": 5865,
      "##aufnah": 5866,
      "##hy": 5867,
      "##tens": 5868,
      "##tes": 5869,
      "Pf": 5870,
      "##nahmen": 5871,
      "Mikro": 5872,
      "##ode": 5873,
      "##eist": 5874,
      "En": 5875,
      "##elev": 5876,
      "min": 5877,
      "##inf": 5878,
      "path": 5879,
      "Hyper": 5880,
      "##urg": 5881,
      "##lekt": 5882,
      "Knie": 5883,
      "##gem": 5884,
      "##ahmen": 5885,
      "##sä": 5886,
      "Raumforderung": 5887,
      "##itten": 5888,
      "##ehand": 5889,
      "Sie": 5890,
      "##uma": 5891,
      "##zei": 5892,
      "##halb": 5893,
      "##wand": 5894,
      "##domin": 5895,
      "aktuell": 5896,
      "möglich": 5897,
      "Voruntersuchung": 5898,
      "Al": 5899,
      "pneumon": 5900,
      "Mediastinum": 5901,
      "##ex": 5902,
      "##ezif": 5903,
      "idem": 5904,
      "##äch": 5905,
      "##hes": 5906,
      "##VK": 5907,
      "##örper": 5908,
      "##itä": 5909,
      "Reg": 5910,
      "Arb": 5911,
      "Sign": 5912,
      "##ehmen": 5913,
      "##gliche": 5914,
      "##esent": 5915,
      "##of": 5916,
      "Verlaufskontrolle": 5917,
      "##ior": 5918,
      "freie": 5919,
      "##timm": 5920,
      "deutlich": 5921,
      "##tiven": 5922,
      "##uz": 5923,
      "##sel": 5924,
      "##ug": 5925,
      "##technik": 5926,
      "Behandlung": 5927,
      "##ov": 5928,
      "##kon": 5929,
      "##ron": 5930,
      "##trag": 5931,
      "##izi": 5932,
      "para": 5933,
      "Spitze": 5934,
      "##schein": 5935,
      "Ma": 5936,
      "##gesamt": 5937,
      "##eld": 5938,
      "100": 5939,
      "beg": 5940,
      "gut": 5941,
      "Tumor": 5942,
      "##ium": 5943,
      "##wendung": 5944,
      "besch": 5945,
      "Jahren": 5946,
      "Bas": 5947,
      "zus": 5948,
      "ap": 5949,
      "intrakranie": 5950,
      "Men": 5951,
      "##tiert": 5952,
      "##oral": 5953,
      "Erguss": 5954,
      "mg": 5955,
      "Rahmen": 5956,
      "liegt": 5957,
      "##yt": 5958,
      "##xim": 5959,
      "Luf": 5960,
      "##isten": 5961,
      "Kontrastmittel": 5962,
      "##hromb": 5963,
      "##rad": 5964,
      "Liqu": 5965,
      "##atis": 5966,
      "##isl": 5967,
      "##ohl": 5968,
      "##assen": 5969,
      "##rain": 5970,
      "##nk": 5971,
      "##ohlen": 5972,
      "##hep": 5973,
      "##aum": 5974,
      "side": 5975,
      "gegen": 5976,
      "Zeichen": 5977,
      "Ven": 5978,
      "seit": 5979,
      "End": 5980,
      "zun": 5981,
      "##stau": 5982,
      "##inn": 5983,
      "IC": 5984,
      "##sz": 5985,
      "##weg": 5986,
      "##schieden": 5987,
      "##osis": 5988,
      "##bst": 5989,
      "Pat": 5990,
      "ind": 5991,
      "##min": 5992,
      "##adi": 5993,
      "erwei": 5994,
      "vergrößert": 5995,
      "Neu": 5996,
      "ange": 5997,
      "Sc": 5998,
      "##zellen": 5999,
      "Ergebnisse": 6000,
      "##hem": 6001,
      "insbesondere": 6002,
      "##esen": 6003,
      "##ommen": 6004,
      "##ographisch": 6005,
      "##zidi": 6006,
      "##gebilde": 6007,
      "##agnose": 6008,
      "31": 6009,
      "Gen": 6010,
      "ven": 6011,
      "##pun": 6012,
      "fl": 6013,
      "Lok": 6014,
      "##osen": 6015,
      "Knochen": 6016,
      "waren": 6017,
      "Hyp": 6018,
      "multi": 6019,
      "##äng": 6020,
      "Ins": 6021,
      "##iden": 6022,
      "All": 6023,
      "##befund": 6024,
      "Fä": 6025,
      "##vers": 6026,
      "weit": 6027,
      "##ente": 6028,
      "##atus": 6029,
      "##terung": 6030,
      "##atom": 6031,
      "##alität": 6032,
      "##ip": 6033,
      "##orta": 6034,
      "##itäts": 6035,
      "##schied": 6036,
      "LWS": 6037,
      "Diese": 6038,
      "Mehr": 6039,
      "##net": 6040,
      "##anal": 6041,
      "later": 6042,
      "Chol": 6043,
      "##schen": 6044,
      "##sam": 6045,
      "##cus": 6046,
      "Bef": 6047,
      "TSE": 6048,
      "Frau": 6049,
      "empfohlen": 6050,
      "##astasen": 6051,
      "Ventrikel": 6052,
      "wel": 6053,
      "##ondyl": 6054,
      "##zeich": 6055,
      "##radi": 6056,
      "##tels": 6057,
      "Stra": 6058,
      "Kinder": 6059,
      "##throse": 6060,
      "durchgef": 6061,
      "chron": 6062,
      "##fahren": 6063,
      "##schw": 6064,
      "Sequenz": 6065,
      "soweit": 6066,
      "##rieben": 6067,
      "##stör": 6068,
      "##auer": 6069,
      "suspek": 6070,
      "##bed": 6071,
      "##atische": 6072,
      "Konkrem": 6073,
      "##tor": 6074,
      "##medi": 6075,
      "##mes": 6076,
      "malign": 6077,
      "dist": 6078,
      "ober": 6079,
      "Rek": 6080,
      "##inkel": 6081,
      "##abei": 6082,
      "2021": 6083,
      "##fiz": 6084,
      "or": 6085,
      "##zidiv": 6086,
      "##öß": 6087,
      "Prä": 6088,
      "##sung": 6089,
      "##mehr": 6090,
      "relev": 6091,
      "##itu": 6092,
      "wenn": 6093,
      "##atur": 6094,
      "##onstruktion": 6095,
      "Dop": 6096,
      "glatt": 6097,
      "##bildung": 6098,
      "##inden": 6099,
      "##last": 6100,
      "##äch": 6101,
      "##ulär": 6102,
      "##ibt": 6103,
      "Def": 6104,
      "gering": 6105,
      "erhö": 6106,
      "Pl": 6107,
      "##ple": 6108,
      "Größ": 6109,
      "##tim": 6110,
      "psych": 6111,
      "häufig": 6112,
      "##verändert": 6113,
      "##ständ": 6114,
      "Anal": 6115,
      "##teht": 6116,
      "##riff": 6117,
      "Segment": 6118,
      "##orph": 6119,
      "gem": 6120,
      "Schul": 6121,
      "##IR": 6122,
      "##schließ": 6123,
      "##hebung": 6124,
      "aufge": 6125,
      "##arkt": 6126,
      "##fen": 6127,
      "##agnostik": 6128,
      "##land": 6129,
      "##figur": 6130,
      "teil": 6131,
      "Symptom": 6132,
      "##körper": 6133,
      "##minder": 6134,
      "##ymmet": 6135,
      "##onar": 6136,
      "##gradige": 6137,
      "hö": 6138,
      "Signal": 6139,
      "Am": 6140,
      "dies": 6141,
      "##stra": 6142,
      "##val": 6143,
      "mittels": 6144,
      "##utung": 6145,
      "##ow": 6146,
      "##ährend": 6147,
      "##ichtung": 6148,
      "##eitung": 6149,
      "HWS": 6150,
      "##band": 6151,
      "##üll": 6152,
      "My": 6153,
      "##lungs": 6154,
      "##inal": 6155,
      "##olgen": 6156,
      "##fusion": 6157,
      "Magen": 6158,
      "##ith": 6159,
      "schl": 6160,
      "##letz": 6161,
      "##prä": 6162,
      "##gten": 6163,
      "##sorgung": 6164,
      "##ruppen": 6165,
      "Nr": 6166,
      "35": 6167,
      "Gl": 6168,
      "erg": 6169,
      "##enkel": 6170,
      "##kung": 6171,
      "##ings": 6172,
      "verbrei": 6173,
      "##hö": 6174,
      "regelrecht": 6175,
      "##nten": 6176,
      "##rel": 6177,
      "Jahre": 6178,
      "##tigung": 6179,
      "##itone": 6180,
      "wesent": 6181,
      "##messer": 6182,
      "Link": 6183,
      "##ungszeichen": 6184,
      "##zahl": 6185,
      "zeigen": 6186,
      "Voraufnahme": 6187,
      "##inge": 6188,
      "Mast": 6189,
      "##irurg": 6190,
      "##ulation": 6191,
      "##ord": 6192,
      "Oper": 6193,
      "##ünd": 6194,
      "Gabe": 6195,
      "##flu": 6196,
      "sag": 6197,
      "RI": 6198,
      "##ühr": 6199,
      "Mark": 6200,
      "##annt": 6201,
      "degener": 6202,
      "##isches": 6203,
      "Pol": 6204,
      "##kun": 6205,
      "80": 6206,
      "##aktion": 6207,
      "##suspek": 6208,
      "##gewe": 6209,
      "untersuch": 6210,
      "##ster": 6211,
      "##häng": 6212,
      "##ender": 6213,
      "##pra": 6214,
      "##zünd": 6215,
      "ech": 6216,
      "Pleuraergüsse": 6217,
      "Sinus": 6218,
      "##ement": 6219,
      "axill": 6220,
      "Liegen": 6221,
      "konfigur": 6222,
      "##öse": 6223,
      "Anteil": 6224,
      "Luft": 6225,
      "##tein": 6226,
      "Hüft": 6227,
      "##blem": 6228,
      "retro": 6229,
      "##fe": 6230,
      "##neh": 6231,
      "##plantation": 6232,
      "Schmerzen": 6233,
      "Da": 6234,
      "##pon": 6235,
      "Kontrolle": 6236,
      "##abor": 6237,
      "##prä": 6238,
      "Lage": 6239,
      "##vor": 6240,
      "BWK": 6241,
      "##gangs": 6242,
      "hoch": 6243,
      "bereits": 6244,
      "##atten": 6245,
      "##besser": 6246,
      "##igung": 6247,
      "##ales": 6248,
      "höher": 6249,
      "##öch": 6250,
      "##para": 6251,
      "##feld": 6252,
      "ZVK": 6253,
      "##man": 6254,
      "##iti": 6255,
      "60": 6256,
      "##pler": 6257,
      "posi": 6258,
      "##ehen": 6259,
      "verschieden": 6260,
      "hö": 6261,
      "Sy": 6262,
      "extra": 6263,
      "reg": 6264,
      "##igkeits": 6265,
      "Auch": 6266,
      "##lagerung": 6267,
      "Gallenblase": 6268,
      "fach": 6269,
      "##ständig": 6270,
      "##ndrom": 6271,
      "Proz": 6272,
      "MP": 6273,
      "Hier": 6274,
      "##ns": 6275,
      "##sis": 6276,
      "med": 6277,
      "Med": 6278,
      "Min": 6279,
      "##ration": 6280,
      "etwa": 6281,
      "Normal": 6282,
      "konnte": 6283,
      "Liquor": 6284,
      "##sei": 6285,
      "##ymmetr": 6286,
      "##schmerz": 6287,
      "##kop": 6288,
      "muss": 6289,
      "##ierenden": 6290,
      "##du": 6291,
      "gr": 6292,
      "Rekonstruktion": 6293,
      "PE": 6294,
      "##takt": 6295,
      "##ans": 6296,
      "front": 6297,
      "##iet": 6298,
      "##ce": 6299,
      "##klerose": 6300,
      "##führ": 6301,
      "##fluss": 6302,
      "Schilddrüsen": 6303,
      "##ichts": 6304,
      "Struktur": 6305,
      "Diagnose": 6306,
      "##ereb": 6307,
      "li": 6308,
      "##säule": 6309,
      "Darm": 6310,
      "ho": 6311,
      "##lose": 6312,
      "Lymphaden": 6313,
      "prim": 6314,
      "##gend": 6315,
      "Para": 6316,
      "bel": 6317,
      "Katheter": 6318,
      "##ozi": 6319,
      "##lt": 6320,
      "##issen": 6321,
      "BWS": 6322,
      "Besch": 6323,
      "##sol": 6324,
      "Harnblase": 6325,
      "frischen": 6326,
      "##herapeu": 6327,
      "Dies": 6328,
      "##haut": 6329,
      "Her": 6330,
      "gest": 6331,
      "Verdacht": 6332,
      "AC": 6333,
      "Spondyl": 6334,
      "##ssen": 6335,
      "##ren": 6336,
      "Ul": 6337,
      "##neu": 6338,
      "Klein": 6339,
      "def": 6340,
      "Serie": 6341,
      "##pression": 6342,
      "verbreitert": 6343,
      "##diente": 6344,
      "##bin": 6345,
      "Grund": 6346,
      "##bereich": 6347,
      "anderen": 6348,
      "Fall": 6349,
      "##wohl": 6350,
      "##tischer": 6351,
      "##askul": 6352,
      "##igitale": 6353,
      "Wand": 6354,
      "##gehen": 6355,
      "##form": 6356,
      "##fü": 6357,
      "##amit": 6358,
      "##tl": 6359,
      "beim": 6360,
      "##stell": 6361,
      "Lin": 6362,
      "##phie": 6363,
      "kardi": 6364,
      "Bekannte": 6365,
      "weitere": 6366,
      "##ieder": 6367,
      "##kal": 6368,
      "of": 6369,
      "Arzt": 6370,
      "Berlin": 6371,
      "sol": 6372,
      "Niere": 6373,
      "##atischen": 6374,
      "37": 6375,
      "kontra": 6376,
      "##hung": 6377,
      "##sichts": 6378,
      "allen": 6379,
      "##fte": 6380,
      "##ehlen": 6381,
      "##ums": 6382,
      "##parenchym": 6383,
      "Kniegelenk": 6384,
      "gel": 6385,
      "##inde": 6386,
      "Lebens": 6387,
      "##anter": 6388,
      "Hil": 6389,
      "prä": 6390,
      "##yten": 6391,
      "Anwendung": 6392,
      "##fizi": 6393,
      "##otherapie": 6394,
      "##karzinom": 6395,
      "##rainage": 6396,
      "Man": 6397,
      "große": 6398,
      "##stör": 6399,
      "Gesamt": 6400,
      "Gruppe": 6401,
      "##teb": 6402,
      "schriftliche": 6403,
      "Eff": 6404,
      "Trans": 6405,
      "##gehend": 6406,
      "Risiken": 6407,
      "Ur": 6408,
      "Disk": 6409,
      "Lymphadenopathie": 6410,
      "##mt": 6411,
      "##aufnahme": 6412,
      "Grad": 6413,
      "##öser": 6414,
      "##zogen": 6415,
      "##gruppe": 6416,
      "wieder": 6417,
      "##io": 6418,
      "##innen": 6419,
      "##gestellt": 6420,
      "Erhebung": 6421,
      "199": 6422,
      "sagitt": 6423,
      "##aktoren": 6424,
      "##plikations": 6425,
      "beiden": 6426,
      "##ris": 6427,
      "Trauma": 6428,
      "ob": 6429,
      "##olle": 6430,
      "##ärer": 6431,
      "Hirn": 6432,
      "##SA": 6433,
      "##orten": 6434,
      "##ct": 6435,
      "Funktion": 6436,
      "Form": 6437,
      "ventra": 6438,
      "##kte": 6439,
      "##stoff": 6440,
      "##ula": 6441,
      "Organ": 6442,
      "##benfalls": 6443,
      "##achen": 6444,
      "nativ": 6445,
      "Aut": 6446,
      "##onie": 6447,
      "erweitert": 6448,
      "Infektion": 6449,
      "behand": 6450,
      "##osition": 6451,
      "einzel": 6452,
      "##struktur": 6453,
      "32": 6454,
      "##system": 6455,
      "hinaus": 6456,
      "##barkeit": 6457,
      "ch": 6458,
      "MPR": 6459,
      "##str": 6460,
      "führ": 6461,
      "##deu": 6462,
      "schwer": 6463,
      "##bas": 6464,
      "##hil": 6465,
      "##tiger": 6466,
      "Haut": 6467,
      "par": 6468,
      "zunehmen": 6469,
      "##oide": 6470,
      "alle": 6471,
      "##ysten": 6472,
      "mittel": 6473,
      "##wege": 6474,
      "##hn": 6475,
      "Aktiv": 6476,
      "##bol": 6477,
      "unterschied": 6478,
      "arterie": 6479,
      "postoper": 6480,
      "res": 6481,
      "gesch": 6482,
      "Oberbauch": 6483,
      "Hö": 6484,
      "aufgrund": 6485,
      "konflu": 6486,
      "##oten": 6487,
      "trans": 6488,
      "Häm": 6489,
      "norm": 6490,
      "##örm": 6491,
      "Angaben": 6492,
      "Tes": 6493,
      "geringer": 6494,
      "zul": 6495,
      "##störung": 6496,
      "##gefä": 6497,
      "##ume": 6498,
      "sicher": 6499,
      "met": 6500,
      "gesamt": 6501,
      "##itäts": 6502,
      "Prost": 6503,
      "kleinen": 6504,
      "##grad": 6505,
      "##griff": 6506,
      "##ierende": 6507,
      "##ane": 6508,
      "durchgeführt": 6509,
      "##bene": 6510,
      "##meter": 6511,
      "Für": 6512,
      "##az": 6513,
      "zentrale": 6514,
      "##ekte": 6515,
      "##lossen": 6516,
      "##eite": 6517,
      "##eim": 6518,
      "##ha": 6519,
      "Rechts": 6520,
      "erw": 6521,
      "##bil": 6522,
      "leich": 6523,
      "konfiguriert": 6524,
      "##punkt": 6525,
      "##spalt": 6526,
      "##aud": 6527,
      "diesem": 6528,
      "Sequenzen": 6529,
      "##pi": 6530,
      "Schulter": 6531,
      "##LA": 6532,
      "Gefäße": 6533,
      "Deutsch": 6534,
      "mögliche": 6535,
      "Frauen": 6536,
      "hil": 6537,
      "Pneu": 6538,
      "##medizin": 6539,
      "##ret": 6540,
      "##SG": 6541,
      "jewei": 6542,
      "Em": 6543,
      "geh": 6544,
      "##ektiv": 6545,
      "mediastin": 6546,
      "höher": 6547,
      "gesam": 6548,
      "Bi": 6549,
      "dann": 6550,
      "Nasen": 6551,
      "disk": 6552,
      "##lav": 6553,
      "Doppler": 6554,
      "Aufnahme": 6555,
      "##ritt": 6556,
      "##ister": 6557,
      "##annten": 6558,
      "konst": 6559,
      "Mus": 6560,
      "##peritone": 6561,
      "intrakraniellen": 6562,
      "wich": 6563,
      "##anamnese": 6564,
      "##gefäß": 6565,
      "45": 6566,
      "000": 6567,
      "For": 6568,
      "großen": 6569,
      "NB": 6570,
      "##weisen": 6571,
      "Intervention": 6572,
      "##wiesen": 6573,
      "Not": 6574,
      "##organ": 6575,
      "##material": 6576,
      "Gesund": 6577,
      "##plan": 6578,
      "##schnitt": 6579,
      "Nebenn": 6580,
      "##ix": 6581,
      "Linie": 6582,
      "##enti": 6583,
      "signifikant": 6584,
      "##ikam": 6585,
      "Fem": 6586,
      "insgesamt": 6587,
      "Übersichts": 6588,
      "##uläre": 6589,
      "##tigt": 6590,
      "Ziel": 6591,
      "##förm": 6592,
      "Wert": 6593,
      "##omen": 6594,
      "Zum": 6595,
      "##kundi": 6596,
      "##zent": 6597,
      "Wochen": 6598,
      "Soweit": 6599,
      "##bef": 6600,
      "verein": 6601,
      "##amin": 6602,
      "##erdings": 6603,
      "##gew": 6604,
      "##rekt": 6605,
      "fachkundi": 6606,
      "Fuß": 6607,
      "Phase": 6608,
      "während": 6609,
      "NN": 6610,
      "Pra": 6611,
      "Kal": 6612,
      "gesamtes": 6613,
      "Anti": 6614,
      "stellt": 6615,
      "Durchmesser": 6616,
      "super": 6617,
      "##ämie": 6618,
      "##zip": 6619,
      "##ellung": 6620,
      "##itor": 6621,
      "abdomin": 6622,
      "HWK": 6623,
      "##beleg": 6624,
      "gibt": 6625,
      "zuletzt": 6626,
      "Au": 6627,
      "erfolgte": 6628,
      "neur": 6629,
      "eingesch": 6630,
      "##ierender": 6631,
      "malignitäts": 6632,
      "##omit": 6633,
      "erfolgt": 6634,
      "##arf": 6635,
      "Übersichtsradi": 6636,
      "Arter": 6637,
      "##eilen": 6638,
      "##ache": 6639,
      "ebenfalls": 6640,
      "##olumen": 6641,
      "klinischen": 6642,
      "##uffizi": 6643,
      "Norm": 6644,
      "frü": 6645,
      "VI": 6646,
      "##bet": 6647,
      "Seiten": 6648,
      "möglich": 6649,
      "##tebral": 6650,
      "Schicht": 6651,
      "##teilung": 6652,
      "##ahn": 6653,
      "Vena": 6654,
      "Schä": 6655,
      "medizin": 6656,
      "##arterien": 6657,
      "##ervik": 6658,
      "Rü": 6659,
      "hyper": 6660,
      "lang": 6661,
      "##uellen": 6662,
      "70": 6663,
      "##wirbel": 6664,
      "##kalkungen": 6665,
      "Aufklärungs": 6666,
      "end": 6667,
      "Dem": 6668,
      "voll": 6669,
      "hep": 6670,
      "##übersicht": 6671,
      "Geb": 6672,
      "##phal": 6673,
      "Stellung": 6674,
      "##ündliche": 6675,
      "Mal": 6676,
      "##CC": 6677,
      "##maß": 6678,
      "##rzt": 6679,
      "SD": 6680,
      "son": 6681,
      "##schenkel": 6682,
      "##werte": 6683,
      "##ome": 6684,
      "ICD": 6685,
      "drei": 6686,
      "##olon": 6687,
      "etwas": 6688,
      "##fferenz": 6689,
      "##gredi": 6690,
      "##wicklung": 6691,
      "##ick": 6692,
      "##ün": 6693,
      "Zusammenfas": 6694,
      "##ili": 6695,
      "Diagnostik": 6696,
      "Hinter": 6697,
      "Maß": 6698,
      "stark": 6699,
      "##uter": 6700,
      "##gment": 6701,
      "letz": 6702,
      "Thromb": 6703,
      "##iegel": 6704,
      "##ronch": 6705,
      "DL": 6706,
      "Digitale": 6707,
      "Geringe": 6708,
      "##xis": 6709,
      "Typ": 6710,
      "##druck": 6711,
      "##alisation": 6712,
      "weiteren": 6713,
      "##achst": 6714,
      "##ore": 6715,
      "##iefer": 6716,
      "LK": 6717,
      "Zellen": 6718,
      "Mastoid": 6719,
      "Veränder": 6720,
      "##bri": 6721,
      "##deh": 6722,
      "pneumonischen": 6723,
      "Rund": 6724,
      "##pel": 6725,
      "damit": 6726,
      "gleich": 6727,
      "weiterhin": 6728,
      "ä": 6729,
      "##arite": 6730,
      "##setz": 6731,
      "basal": 6732,
      "##ingt": 6733,
      "welche": 6734,
      "Hem": 6735,
      "was": 6736,
      "##orb": 6737,
      "##ösen": 6738,
      "##gf": 6739,
      "##remd": 6740,
      "immer": 6741,
      "##gemein": 6742,
      "kn": 6743,
      "Prostat": 6744,
      "##utz": 6745,
      "##osten": 6746,
      "Isch": 6747,
      "unser": 6748,
      "vgl": 6749,
      "Stand": 6750,
      "axiale": 6751,
      "##plantat": 6752,
      "aufgetreten": 6753,
      "##oskop": 6754,
      "Behandlungs": 6755,
      "##trans": 6756,
      "##bt": 6757,
      "##lau": 6758,
      "##ographien": 6759,
      "##keiten": 6760,
      "Untersuchungstechnik": 6761,
      "Tag": 6762,
      "##dicke": 6763,
      "##urys": 6764,
      "##eig": 6765,
      "##bul": 6766,
      "Ö": 6767,
      "##echsel": 6768,
      "##CS": 6769,
      "##ame": 6770,
      "##enn": 6771,
      "hyp": 6772,
      "Versorgung": 6773,
      "##erob": 6774,
      "Fremd": 6775,
      "maxi": 6776,
      "##arte": 6777,
      "Resektion": 6778,
      "##ynam": 6779,
      "Kranken": 6780,
      "##ahrschein": 6781,
      "##Gy": 6782,
      "NNH": 6783,
      "typ": 6784,
      "Konkrement": 6785,
      "Sturz": 6786,
      "##gabe": 6787,
      "##sst": 6788,
      "Anlage": 6789,
      "messen": 6790,
      "Pfle": 6791,
      "##eint": 6792,
      "Art": 6793,
      "kommt": 6794,
      "III": 6795,
      "##lagen": 6796,
      "##ca": 6797,
      "Psych": 6798,
      "Verletz": 6799,
      "##ften": 6800,
      "Band": 6801,
      "folgen": 6802,
      "Rezidiv": 6803,
      "oper": 6804,
      "##reg": 6805,
      "##ierend": 6806,
      "wei": 6807,
      "##otop": 6808,
      "Trache": 6809,
      "##indes": 6810,
      "##ksam": 6811,
      "##ehl": 6812,
      "##lang": 6813,
      "thora": 6814,
      "##tieren": 6815,
      "MS": 6816,
      "##funktion": 6817,
      "Belast": 6818,
      "##sie": 6819,
      "Prof": 6820,
      "##gerung": 6821,
      "Herd": 6822,
      "90": 6823,
      "##fasst": 6824,
      "##ins": 6825,
      "Harnstau": 6826,
      "Risikoanamnese": 6827,
      "##bogen": 6828,
      "##werden": 6829,
      "Monaten": 6830,
      "##lichkeit": 6831,
      "Konst": 6832,
      "ad": 6833,
      "mittl": 6834,
      "Asp": 6835,
      "nie": 6836,
      "mündliche": 6837,
      "##sionen": 6838,
      "gestellt": 6839,
      "besteht": 6840,
      "##isierung": 6841,
      "Multi": 6842,
      "##sonographie": 6843,
      "##arthrose": 6844,
      "##inger": 6845,
      "##erk": 6846,
      "Untersuchungen": 6847,
      "Person": 6848,
      "auß": 6849,
      "##alter": 6850,
      "Diff": 6851,
      "orth": 6852,
      "zeigte": 6853,
      "Schl": 6854,
      "Deutschland": 6855,
      "##nden": 6856,
      "##DS": 6857,
      "aller": 6858,
      "Befun": 6859,
      "Femur": 6860,
      "33": 6861,
      "##va": 6862,
      "Bein": 6863,
      "##grediente": 6864,
      "unauffällige": 6865,
      "##tigra": 6866,
      "Aufklärungsbeleg": 6867,
      "Perfusion": 6868,
      "mü": 6869,
      "Übersichtsradiographien": 6870,
      "Analyse": 6871,
      "##tensiv": 6872,
      "62": 6873,
      "##iral": 6874,
      "##therapie": 6875,
      "alter": 6876,
      "Zur": 6877,
      "unverändert": 6878,
      "##klär": 6879,
      "##ablauf": 6880,
      "neg": 6881,
      "##ysen": 6882,
      "##tionen": 6883,
      "##linik": 6884,
      "36": 6885,
      "PET": 6886,
      "regelrechte": 6887,
      "##zintigra": 6888,
      "##oplas": 6889,
      "Skel": 6890,
      "##rose": 6891,
      "##folgen": 6892,
      "##kungen": 6893,
      "##hä": 6894,
      "Tel": 6895,
      "Problem": 6896,
      "Erkrankung": 6897,
      "Status": 6898,
      "##gesetzt": 6899,
      "vergleich": 6900,
      "DLP": 6901,
      "##ichtungen": 6902,
      "##ator": 6903,
      "##AS": 6904,
      "ersten": 6905,
      "##pen": 6906,
      "##veränderungen": 6907,
      "periph": 6908,
      "Sel": 6909,
      "Rundher": 6910,
      "Syndrom": 6911,
      "we": 6912,
      "Mess": 6913,
      "##ular": 6914,
      "Strahlen": 6915,
      "Erkrankungen": 6916,
      "##dung": 6917,
      "komplikations": 6918,
      "entsprechend": 6919,
      "##ätzlich": 6920,
      "verm": 6921,
      "##okation": 6922,
      "verw": 6923,
      "Degener": 6924,
      "Fib": 6925,
      "##zus": 6926,
      "99": 6927,
      "##ativer": 6928,
      "Regel": 6929,
      "Beckenübersicht": 6930,
      "##atik": 6931,
      "erhöh": 6932,
      "##teile": 6933,
      "Schädel": 6934,
      "and": 6935,
      "34": 6936,
      "##zentu": 6937,
      "Flüssigkeits": 6938,
      "Fett": 6939,
      "Schla": 6940,
      "##gest": 6941,
      "Aufnahmen": 6942,
      "selten": 6943,
      "##uffizienz": 6944,
      "##mitte": 6945,
      "TE": 6946,
      "Gesch": 6947,
      "##iertes": 6948,
      "Test": 6949,
      "##anger": 6950,
      "##omographie": 6951,
      "Verfahren": 6952,
      "vie": 6953,
      "heu": 6954,
      "Wachst": 6955,
      "Schlei": 6956,
      "Schichtdicke": 6957,
      "2008": 6958,
      "Einzel": 6959,
      "lok": 6960,
      "Port": 6961,
      "##CA": 6962,
      "Druck": 6963,
      "##spezif": 6964,
      "malignitätssuspek": 6965,
      "##tifiz": 6966,
      "vergrößerten": 6967,
      "##trem": 6968,
      "Ca": 6969,
      "Tesla": 6970,
      "offen": 6971,
      "Einsatz": 6972,
      "Ri": 6973,
      "##tin": 6974,
      "Aktuell": 6975,
      "diagnos": 6976,
      "Os": 6977,
      "##test": 6978,
      "Mastoidzellen": 6979,
      "Infarkt": 6980,
      "Aorta": 6981,
      "RF": 6982,
      "Punktion": 6983,
      "ihrer": 6984,
      "oste": 6985,
      "PI": 6986,
      "##kten": 6987,
      "##reichen": 6988,
      "##phase": 6989,
      "##istenz": 6990,
      "Stauungszeichen": 6991,
      "her": 6992,
      "tra": 6993,
      "erst": 6994,
      "Empf": 6995,
      "##erer": 6996,
      "konnten": 6997,
      "eigen": 6998,
      "##arité": 6999,
      "Ultra": 7000,
      "Post": 7001,
      "Erwei": 7002,
      "##nerhalb": 7003,
      "##schmerzen": 7004,
      "the": 7005,
      "##bei": 7006,
      "##gor": 7007,
      "##des": 7008,
      "Tr": 7009,
      "##wertung": 7010,
      "Hoch": 7011,
      "supra": 7012,
      "Links": 7013,
      "rechte": 7014,
      "##nisse": 7015,
      "##iss": 7016,
      "##rale": 7017,
      "Arbeits": 7018,
      "##biologie": 7019,
      "sollten": 7020,
      "##äßig": 7021,
      "cor": 7022,
      "Weiterhin": 7023,
      "gesamten": 7024,
      "##erter": 7025,
      "##oste": 7026,
      "Klinische": 7027,
      "Sinne": 7028,
      "Angi": 7029,
      "##hanc": 7030,
      "entwick": 7031,
      "Fach": 7032,
      "##zug": 7033,
      "System": 7034,
      "##stit": 7035,
      "##annter": 7036,
      "Retro": 7037,
      "##baren": 7038,
      "##akarzinom": 7039,
      "##etts": 7040,
      "Hüftgelenk": 7041,
      "dabei": 7042,
      "Rest": 7043,
      "Schleim": 7044,
      "beschrieben": 7045,
      "regelrechter": 7046,
      "Menschen": 7047,
      "IV": 7048,
      "##usions": 7049,
      "##eduz": 7050,
      "Nebennieren": 7051,
      "##rate": 7052,
      "Su": 7053,
      "##aryn": 7054,
      "##möglich": 7055,
      "##führ": 7056,
      "oben": 7057,
      "klinische": 7058,
      "##ivid": 7059,
      "##abgebilde": 7060,
      "Koll": 7061,
      "besser": 7062,
      "Höhe": 7063,
      "Urs": 7064,
      "##ntgen": 7065,
      "rel": 7066,
      "mGy": 7067,
      "Pla": 7068,
      "##frei": 7069,
      "##änge": 7070,
      "intakt": 7071,
      "fem": 7072,
      "Rei": 7073,
      "vermehr": 7074,
      "Beweg": 7075,
      "##mung": 7076,
      "##zeichnung": 7077,
      "##räume": 7078,
      "ggf": 7079,
      "Zusammenh": 7080,
      "Metastasen": 7081,
      "##achsen": 7082,
      "val": 7083,
      "##astas": 7084,
      "Schriftliche": 7085,
      "##uelle": 7086,
      "Gesundheits": 7087,
      "##zept": 7088,
      "##plas": 7089,
      "Zell": 7090,
      "##äd": 7091,
      "##minderung": 7092,
      "##yst": 7093,
      "##ondern": 7094,
      "Ausge": 7095,
      "disl": 7096,
      "75": 7097,
      "Ergüsse": 7098,
      "kontur": 7099,
      "##fach": 7100,
      "Me": 7101,
      "##vas": 7102,
      "Charité": 7103,
      "##osierung": 7104,
      "##genommen": 7105,
      "##fikation": 7106,
      "##tiver": 7107,
      "Ä": 7108,
      "sowohl": 7109,
      "Osteop": 7110,
      "##ektomie": 7111,
      "##riterien": 7112,
      "diesen": 7113,
      "Aorten": 7114,
      "##ites": 7115,
      "##ynt": 7116,
      "Gegen": 7117,
      "Korrel": 7118,
      "##bs": 7119,
      "Immun": 7120,
      "##kopf": 7121,
      "OSG": 7122,
      "Path": 7123,
      "##üt": 7124,
      "##10": 7125,
      "Praxis": 7126,
      "##uk": 7127,
      "##abschn": 7128,
      "##soph": 7129,
      "##aph": 7130,
      "##renz": 7131,
      "nachweis": 7132,
      "FLA": 7133,
      "mittelständig": 7134,
      "geringe": 7135,
      "sondern": 7136,
      "##ud": 7137,
      "38": 7138,
      "Komplikation": 7139,
      "##gewebe": 7140,
      "##oli": 7141,
      "somit": 7142,
      "proxim": 7143,
      "##esenter": 7144,
      "Stenose": 7145,
      "subk": 7146,
      "Stör": 7147,
      "##max": 7148,
      "extrahep": 7149,
      "##aktiv": 7150,
      "Cholest": 7151,
      "Als": 7152,
      "kleine": 7153,
      "##iell": 7154,
      "##iter": 7155,
      "ben": 7156,
      "knöch": 7157,
      "##eisten": 7158,
      "##ktomie": 7159,
      "Beg": 7160,
      "Größe": 7161,
      "##skop": 7162,
      "##eln": 7163,
      "ich": 7164,
      "##typ": 7165,
      "##bau": 7166,
      "##eb": 7167,
      "Frakturen": 7168,
      "##position": 7169,
      "Cholestase": 7170,
      "Ischämie": 7171,
      "Rand": 7172,
      "pulmonal": 7173,
      "Du": 7174,
      "##ochond": 7175,
      "Anzahl": 7176,
      "superior": 7177,
      "CO": 7178,
      "##echan": 7179,
      "Str": 7180,
      "not": 7181,
      "##gewiesen": 7182,
      "##seits": 7183,
      "distalen": 7184,
      "bef": 7185,
      "Kre": 7186,
      "ossären": 7187,
      "##aupt": 7188,
      "Chem": 7189,
      "kommen": 7190,
      "##TX": 7191,
      "Ech": 7192,
      "##lingen": 7193,
      "##elegen": 7194,
      "Fällen": 7195,
      "Bauch": 7196,
      "Bet": 7197,
      "symmetr": 7198,
      "best": 7199,
      "Beidseits": 7200,
      "angrenz": 7201,
      "erforder": 7202,
      "denen": 7203,
      "Ep": 7204,
      "##lö": 7205,
      "Sek": 7206,
      "Schleimhaut": 7207,
      "pulmonale": 7208,
      "##gu": 7209,
      "andere": 7210,
      "allem": 7211,
      "Arbeit": 7212,
      "Beschwerden": 7213,
      "##zte": 7214,
      "frische": 7215,
      "##sentsprech": 7216,
      "##ozyten": 7217,
      "##ruch": 7218,
      "erster": 7219,
      "führen": 7220,
      "gefüll": 7221,
      "##prägte": 7222,
      "##ialen": 7223,
      "##ution": 7224,
      "##reger": 7225,
      "##yc": 7226,
      "##orphologisch": 7227,
      "besonder": 7228,
      "Ane": 7229,
      "CCT": 7230,
      "Frei": 7231,
      "Asz": 7232,
      "fest": 7233,
      "##zentra": 7234,
      "##atum": 7235,
      "Ter": 7236,
      "##ssozi": 7237,
      "##erkrank": 7238,
      "Disl": 7239,
      "##beten": 7240,
      "selbst": 7241,
      "Konkrementnachweis": 7242,
      "Aneurys": 7243,
      "##zell": 7244,
      "##oster": 7245,
      "sagittal": 7246,
      "demark": 7247,
      "geb": 7248,
      "Körper": 7249,
      "##estruktion": 7250,
      "Fluss": 7251,
      "Gewe": 7252,
      "Differenz": 7253,
      "Mikrobiologie": 7254,
      "##ensi": 7255,
      "Erweiterung": 7256,
      "Tagen": 7257,
      "Hirnd": 7258,
      "##gradigen": 7259,
      "##tag": 7260,
      "Aszites": 7261,
      "##sthes": 7262,
      "Kontroll": 7263,
      "Eingriff": 7264,
      "Erst": 7265,
      "Mut": 7266,
      "jeweils": 7267,
      "Zister": 7268,
      "SP": 7269,
      "Zun": 7270,
      "kurz": 7271,
      "innerhalb": 7272,
      "Entwicklung": 7273,
      "Hirndruck": 7274,
      "##ats": 7275,
      "##umer": 7276,
      "##bruch": 7277,
      "##arder": 7278,
      "com": 7279,
      "##ograf": 7280,
      "Perik": 7281,
      "bestimm": 7282,
      "kontrasti": 7283,
      "##isse": 7284,
      "##indet": 7285,
      "linke": 7286,
      "##ure": 7287,
      "reduz": 7288,
      "Kombin": 7289,
      "Dabei": 7290,
      "##isph": 7291,
      "##hese": 7292,
      "entzünd": 7293,
      "exter": 7294,
      "letzten": 7295,
      "##oder": 7296,
      "Veränderungen": 7297,
      "dorsal": 7298,
      "##use": 7299,
      "##ku": 7300,
      "##unge": 7301,
      "48": 7302,
      "Unterlappen": 7303,
      "Leist": 7304,
      "abgebilde": 7305,
      "##ranium": 7306,
      "Inform": 7307,
      "##zünd": 7308,
      "stellen": 7309,
      "##ralen": 7310,
      "##reter": 7311,
      "disloz": 7312,
      "##kter": 7313,
      "größ": 7314,
      "##ition": 7315,
      "##üf": 7316,
      "##ologischer": 7317,
      "##beding": 7318,
      "cava": 7319,
      "nachweisbar": 7320,
      "##emp": 7321,
      "##traum": 7322,
      "Ad": 7323,
      "infra": 7324,
      "Einfluss": 7325,
      "##ystelekt": 7326,
      "##ismus": 7327,
      "eindeu": 7328,
      "##ade": 7329,
      "radi": 7330,
      "##WI": 7331,
      "deren": 7332,
      "##urs": 7333,
      "##00": 7334,
      "##vertebral": 7335,
      "Gew": 7336,
      "##führung": 7337,
      "seiten": 7338,
      "Zisternen": 7339,
      "##armak": 7340,
      "##etes": 7341,
      "Des": 7342,
      "Bede": 7343,
      "##astro": 7344,
      "vereinbar": 7345,
      "Erreger": 7346,
      "##cer": 7347,
      "zervik": 7348,
      "55": 7349,
      "diff": 7350,
      "Name": 7351,
      "##ezie": 7352,
      "##ichtet": 7353,
      "##schm": 7354,
      "Cor": 7355,
      "Unterbauch": 7356,
      "##befunde": 7357,
      "##angi": 7358,
      "##abdomin": 7359,
      "ihre": 7360,
      "##flä": 7361,
      "Regelrech": 7362,
      "müssen": 7363,
      "##rum": 7364,
      "##rechen": 7365,
      "##osynt": 7366,
      "##plex": 7367,
      "RA": 7368,
      "##omet": 7369,
      "##arderguss": 7370,
      "##höhlen": 7371,
      "Operation": 7372,
      "##itz": 7373,
      "Leit": 7374,
      "Rücken": 7375,
      "##ektive": 7376,
      "Lock": 7377,
      "##rh": 7378,
      "Knoch": 7379,
      "##störungen": 7380,
      "##erner": 7381,
      "eher": 7382,
      "##gruppen": 7383,
      "64": 7384,
      "##ituation": 7385,
      "##rol": 7386,
      "gegenüber": 7387,
      "##orden": 7388,
      "Par": 7389,
      "##gig": 7390,
      "##ritten": 7391,
      "##sonde": 7392,
      "##ument": 7393,
      "daher": 7394,
      "Comp": 7395,
      "##itzen": 7396,
      "##gerech": 7397,
      "##wirkungen": 7398,
      "##ette": 7399,
      "weniger": 7400,
      "oberen": 7401,
      "##opulmon": 7402,
      "heute": 7403,
      "##physe": 7404,
      "Möglich": 7405,
      "Dopplersonographie": 7406,
      "oft": 7407,
      "##rust": 7408,
      "Insgesamt": 7409,
      "Bandschei": 7410,
      "Krankheits": 7411,
      "##kom": 7412,
      "##voll": 7413,
      "Gering": 7414,
      "##ital": 7415,
      "schw": 7416,
      "Ru": 7417,
      "Unauffällig": 7418,
      "Bedeutung": 7419,
      "untersucht": 7420,
      "##ogramm": 7421,
      "##wirbelsäule": 7422,
      "allerdings": 7423,
      "Labor": 7424,
      "##NA": 7425,
      "finden": 7426,
      "SE": 7427,
      "Sti": 7428,
      "##durch": 7429,
      "Medizin": 7430,
      "Intra": 7431,
      "##gelm": 7432,
      "suspekten": 7433,
      "##belast": 7434,
      "##lä": 7435,
      "##aufnahmen": 7436,
      "viel": 7437,
      "Pun": 7438,
      "##utan": 7439,
      "Extrem": 7440,
      "##scheiden": 7441,
      "individ": 7442,
      "##timmung": 7443,
      "##ive": 7444,
      "bisher": 7445,
      "Zusammenhang": 7446,
      "##reis": 7447,
      "##imm": 7448,
      "##ulen": 7449,
      "95": 7450,
      "##edu": 7451,
      "##pus": 7452,
      "zentral": 7453,
      "Kontrastmitte": 7454,
      "39": 7455,
      "##trags": 7456,
      "Liquorräume": 7457,
      "##organe": 7458,
      "Gallenwege": 7459,
      "Prozess": 7460,
      "##haus": 7461,
      "Lokal": 7462,
      "##ons": 7463,
      "##rik": 7464,
      "Hep": 7465,
      "Monate": 7466,
      "Spiral": 7467,
      "Medikam": 7468,
      "##tika": 7469,
      "lateral": 7470,
      "##obei": 7471,
      "##isation": 7472,
      "##besch": 7473,
      "##gn": 7474,
      "##iziert": 7475,
      "##rete": 7476,
      "Mittell": 7477,
      "##neben": 7478,
      "##valu": 7479,
      "##ange": 7480,
      "##operative": 7481,
      "Abnahme": 7482,
      "Wirbelkörper": 7483,
      "vs": 7484,
      "##wiegen": 7485,
      "##tit": 7486,
      "##änger": 7487,
      "Bel": 7488,
      "##resektion": 7489,
      "Abbild": 7490,
      "Nativ": 7491,
      "Abdomens": 7492,
      "##oralis": 7493,
      "Ebene": 7494,
      "##tw": 7495,
      "Nicht": 7496,
      "##cm": 7497,
      "IM": 7498,
      "##atell": 7499,
      "begrenz": 7500,
      "Spin": 7501,
      "##akro": 7502,
      "wobei": 7503,
      "##kultur": 7504,
      "frontal": 7505,
      "Gefäß": 7506,
      "42": 7507,
      "spezif": 7508,
      "Orth": 7509,
      "konturiert": 7510,
      "##ief": 7511,
      "##leben": 7512,
      "##angen": 7513,
      "erbeten": 7514,
      "##ücksich": 7515,
      "Prim": 7516,
      "##ux": 7517,
      "Darüber": 7518,
      "stehen": 7519,
      "Fol": 7520,
      "##ategor": 7521,
      "hand": 7522,
      "erhalten": 7523,
      "entsprechenden": 7524,
      "fehlen": 7525,
      "##gebung": 7526,
      "lassen": 7527,
      "46": 7528,
      "##veränderte": 7529,
      "fokalen": 7530,
      "65": 7531,
      "##okus": 7532,
      "Forsch": 7533,
      "##ularis": 7534,
      "##ec": 7535,
      "##stei": 7536,
      "Bed": 7537,
      "Gruppen": 7538,
      "Drainage": 7539,
      "Lokalisation": 7540,
      "system": 7541,
      "Untersuchungsablauf": 7542,
      "##mark": 7543,
      "Arteria": 7544,
      "##bericht": 7545,
      "##cc": 7546,
      "##heb": 7547,
      "##issenschaft": 7548,
      "##irkul": 7549,
      "Antik": 7550,
      "ossäre": 7551,
      "##umb": 7552,
      "Wachstum": 7553,
      "##ps": 7554,
      "120": 7555,
      "wesentliche": 7556,
      "Are": 7557,
      "Hy": 7558,
      "erreich": 7559,
      "##esse": 7560,
      "##ichten": 7561,
      "##winkel": 7562,
      "ehes": 7563,
      "Komplikationen": 7564,
      "Strukturen": 7565,
      "43": 7566,
      "##12": 7567,
      "prä": 7568,
      "Nar": 7569,
      "##ller": 7570,
      "Sk": 7571,
      "Bronch": 7572,
      "Sh": 7573,
      "##blutung": 7574,
      "Winkel": 7575,
      "regre": 7576,
      "Zeilen": 7577,
      "##ätz": 7578,
      "führt": 7579,
      "Werte": 7580,
      "##gie": 7581,
      "Tage": 7582,
      "Pneumonie": 7583,
      "##ong": 7584,
      "Leu": 7585,
      "le": 7586,
      "ra": 7587,
      "##nab": 7588,
      "##zü": 7589,
      "##ogenität": 7590,
      "##sonsten": 7591,
      "MB": 7592,
      "thorak": 7593,
      "freier": 7594,
      "Na": 7595,
      "##irn": 7596,
      "##behand": 7597,
      "Hämatom": 7598,
      "##physem": 7599,
      "verwende": 7600,
      "Dislokation": 7601,
      "##etten": 7602,
      "##yk": 7603,
      "OPS": 7604,
      "##setzung": 7605,
      "betont": 7606,
      "ehesten": 7607,
      "Dün": 7608,
      "44": 7609,
      "dieses": 7610,
      "TEP": 7611,
      "erfolgen": 7612,
      "##zer": 7613,
      "Fälle": 7614,
      "Pflege": 7615,
      "bekannt": 7616,
      "unteren": 7617,
      "Schwanger": 7618,
      "##verdick": 7619,
      "##fris": 7620,
      "rand": 7621,
      "##alp": 7622,
      "ph": 7623,
      "##onis": 7624,
      "At": 7625,
      "degenerative": 7626,
      "qu": 7627,
      "##ilt": 7628,
      "PD": 7629,
      "Vorh": 7630,
      "##ortal": 7631,
      "Ausschluss": 7632,
      "##ahrscheinlich": 7633,
      "neue": 7634,
      "leicht": 7635,
      "##idiert": 7636,
      "##itäten": 7637,
      "fokaler": 7638,
      "jug": 7639,
      "ventral": 7640,
      "Zahn": 7641,
      "CC": 7642,
      "##sichtlich": 7643,
      "##sophag": 7644,
      "##stierung": 7645,
      "##urzel": 7646,
      "##spie": 7647,
      "##ubl": 7648,
      "Bandscheiben": 7649,
      "##belastung": 7650,
      "zusammen": 7651,
      "Standard": 7652,
      "##tex": 7653,
      "##seitig": 7654,
      "Raumforderungen": 7655,
      "##linien": 7656,
      "##antw": 7657,
      "##tung": 7658,
      "##̈bri": 7659,
      "##schließend": 7660,
      "##spule": 7661,
      "##ider": 7662,
      "##inale": 7663,
      "##nehmen": 7664,
      "Entzünd": 7665,
      "##bit": 7666,
      "mittleren": 7667,
      "raumforder": 7668,
      "41": 7669,
      "Seit": 7670,
      "sozi": 7671,
      "Kombination": 7672,
      "##odell": 7673,
      "##iges": 7674,
      "anter": 7675,
      "orthotop": 7676,
      "##richt": 7677,
      "##sende": 7678,
      "Symptome": 7679,
      "##faktoren": 7680,
      "##glichen": 7681,
      "##omat": 7682,
      "##obach": 7683,
      "bi": 7684,
      "##ander": 7685,
      "##lex": 7686,
      "Abbildung": 7687,
      "verschiedenen": 7688,
      "bestehen": 7689,
      "Fam": 7690,
      "Dat": 7691,
      "Angiographie": 7692,
      "##opsie": 7693,
      "##ritor": 7694,
      "##bare": 7695,
      "auslauf": 7696,
      "Perikarderguss": 7697,
      "SA": 7698,
      "Tran": 7699,
      "Haus": 7700,
      "##utert": 7701,
      "##fang": 7702,
      "##ision": 7703,
      "neuen": 7704,
      "Tub": 7705,
      "akt": 7706,
      "##ene": 7707,
      "Schwer": 7708,
      "Was": 7709,
      "##tiell": 7710,
      "Ile": 7711,
      "##abl": 7712,
      "Mamma": 7713,
      "na": 7714,
      "venöser": 7715,
      "Minder": 7716,
      "##änderung": 7717,
      "##ämie": 7718,
      "Malign": 7719,
      "##iat": 7720,
      "PA": 7721,
      "##atienten": 7722,
      "##ränk": 7723,
      "Traumafolgen": 7724,
      "Rekonstruktionen": 7725,
      "pl": 7726,
      "höhergradigen": 7727,
      "##appen": 7728,
      "##alten": 7729,
      "Lenden": 7730,
      "Tro": 7731,
      "FLAIR": 7732,
      "##hancement": 7733,
      "Zysten": 7734,
      "##indung": 7735,
      "dara": 7736,
      "teils": 7737,
      "Schilddrüse": 7738,
      "##ungsver": 7739,
      "zeit": 7740,
      "##lust": 7741,
      "##heiten": 7742,
      "intraabdomin": 7743,
      "##iale": 7744,
      "##spiel": 7745,
      "##lagerungen": 7746,
      "Liter": 7747,
      "verbesser": 7748,
      "##qualität": 7749,
      "Volumen": 7750,
      "Kardi": 7751,
      "Erw": 7752,
      "Subst": 7753,
      "##linie": 7754,
      "zeigten": 7755,
      "##PD": 7756,
      "op": 7757,
      "##schiede": 7758,
      "Hinweise": 7759,
      "Groß": 7760,
      "verb": 7761,
      "Är": 7762,
      "ionis": 7763,
      "Fr": 7764,
      "deform": 7765,
      "Gut": 7766,
      "meist": 7767,
      "therapeu": 7768,
      "##läsion": 7769,
      "akuten": 7770,
      "unkl": 7771,
      "##sender": 7772,
      "##tinu": 7773,
      "AD": 7774,
      "##otte": 7775,
      "##weich": 7776,
      "##leitung": 7777,
      "52": 7778,
      "Wirbelsäule": 7779,
      "Keim": 7780,
      "##oti": 7781,
      "##breite": 7782,
      "##schwellung": 7783,
      "##ke": 7784,
      "impon": 7785,
      "neben": 7786,
      "##üftet": 7787,
      "##indestens": 7788,
      "Implantation": 7789,
      "##ias": 7790,
      "##äl": 7791,
      "Vari": 7792,
      "Selbst": 7793,
      "##fän": 7794,
      "##besserung": 7795,
      "##hängig": 7796,
      "##set": 7797,
      "Op": 7798,
      "Wieder": 7799,
      "##metastasen": 7800,
      "erschein": 7801,
      "##rau": 7802,
      "mitabgebilde": 7803,
      "##fänger": 7804,
      "belüftet": 7805,
      "##pfänger": 7806,
      "##abetes": 7807,
      "##risik": 7808,
      "ionisierender": 7809,
      "pathologisch": 7810,
      "##insuffizienz": 7811,
      "##ve": 7812,
      "47": 7813,
      "##stu": 7814,
      "##gien": 7815,
      "Nasenneben": 7816,
      "Rundherde": 7817,
      "##aktor": 7818,
      "##stein": 7819,
      "##igkeiten": 7820,
      "##ärer": 7821,
      "##zuf": 7822,
      "beobach": 7823,
      "apik": 7824,
      "##fäh": 7825,
      "##fell": 7826,
      "##ckt": 7827,
      "Magensonde": 7828,
      "##vol": 7829,
      "Rolle": 7830,
      "Ach": 7831,
      "Atem": 7832,
      "Reaktion": 7833,
      "fort": 7834,
      "##arzt": 7835,
      "##KS": 7836,
      "##iration": 7837,
      "Marklager": 7838,
      "Ste": 7839,
      "interna": 7840,
      "##saum": 7841,
      "##intens": 7842,
      "CD": 7843,
      "Maßnahmen": 7844,
      "bekannten": 7845,
      "Belüft": 7846,
      "fra": 7847,
      "##homogen": 7848,
      "##eter": 7849,
      "relevante": 7850,
      "##BE": 7851,
      "##odi": 7852,
      "Anfer": 7853,
      "Destruktion": 7854,
      "Brust": 7855,
      "##venöse": 7856,
      "sog": 7857,
      "##enter": 7858,
      "Prä": 7859,
      "Prostata": 7860,
      "##adium": 7861,
      "fachkundigen": 7862,
      "gelegen": 7863,
      "Stern": 7864,
      "SWK": 7865,
      "sei": 7866,
      "klinisch": 7867,
      "Rippen": 7868,
      "Män": 7869,
      "##ütz": 7870,
      "einzelnen": 7871,
      "Klas": 7872,
      "Spiegel": 7873,
      "##CL": 7874,
      "Unterschenkel": 7875,
      "##duktion": 7876,
      "##zeigt": 7877,
      "##akte": 7878,
      "defin": 7879,
      "##hemisph": 7880,
      "Ganz": 7881,
      "##arer": 7882,
      "##ographische": 7883,
      "##ifest": 7884,
      "MBq": 7885,
      "Eingangs": 7886,
      "##von": 7887,
      "##analyse": 7888,
      "Nier": 7889,
      "deformans": 7890,
      "Ster": 7891,
      "schon": 7892,
      "funktion": 7893,
      "Befundbericht": 7894,
      "proximalen": 7895,
      "##SS": 7896,
      "##segment": 7897,
      "Basale": 7898,
      "VCS": 7899,
      "##lech": 7900,
      "pulmonalen": 7901,
      "Haupt": 7902,
      "mesenter": 7903,
      "mindestens": 7904,
      "##ierungs": 7905,
      "##cher": 7906,
      "erken": 7907,
      "##dempfänger": 7908,
      "##datum": 7909,
      "Thy": 7910,
      "##ränk": 7911,
      "Befundempfänger": 7912,
      "Effekt": 7913,
      "Schultergelenk": 7914,
      "Lunge": 7915,
      "pathologischen": 7916,
      "##solid": 7917,
      "Übergang": 7918,
      "Absz": 7919,
      "maxill": 7920,
      "Anfertigung": 7921,
      "##atin": 7922,
      "##ithel": 7923,
      "##arynx": 7924,
      "blei": 7925,
      "Ob": 7926,
      "Verhalten": 7927,
      "##anden": 7928,
      "##wechsel": 7929,
      "##katheter": 7930,
      "Hirndruckzeichen": 7931,
      "validiert": 7932,
      "##untersuchungen": 7933,
      "##stieg": 7934,
      "##ivers": 7935,
      "signifikante": 7936,
      "Kindern": 7937,
      "ter": 7938,
      "Unverändert": 7939,
      "also": 7940,
      "Literatur": 7941,
      "##zintigraphie": 7942,
      "##ancre": 7943,
      "Native": 7944,
      "mehrere": 7945,
      "hist": 7946,
      "##ächst": 7947,
      "nachgewiesen": 7948,
      "##hö": 7949,
      "Lungenabschn": 7950,
      "Verdichtungen": 7951,
      "##eiden": 7952,
      "Wie": 7953,
      "Rö": 7954,
      "Sich": 7955,
      "##tic": 7956,
      "##linikum": 7957,
      "##these": 7958,
      "Nasennebenhöhlen": 7959,
      "Image": 7960,
      "könnte": 7961,
      "##ielt": 7962,
      "##reicherung": 7963,
      "##ile": 7964,
      "##ax": 7965,
      "Spinalk": 7966,
      "worden": 7967,
      "##mit": 7968,
      "##ierungen": 7969,
      "##irurgie": 7970,
      "betro": 7971,
      "Kopfes": 7972,
      "ingu": 7973,
      "Urin": 7974,
      "assozi": 7975,
      "Augen": 7976,
      "betroffen": 7977,
      "hatten": 7978,
      "Kategor": 7979,
      "##enkonst": 7980,
      "Sep": 7981,
      "##sthesie": 7982,
      "##RT": 7983,
      "Dek": 7984,
      "erhö": 7985,
      "##für": 7986,
      "##audal": 7987,
      "Karzinom": 7988,
      "Dystelekt": 7989,
      "Axi": 7990,
      "##osklerose": 7991,
      "##werch": 7992,
      "Eingangsdatum": 7993,
      "Lendenwirbelsäule": 7994,
      "##ateral": 7995,
      "FS": 7996,
      "Tib": 7997,
      "##loser": 7998,
      "##auftrag": 7999,
      "Zwerch": 8000,
      "Ju": 8001,
      "Degenerative": 8002,
      "Orbit": 8003,
      "DWI": 8004,
      "##ission": 8005,
      "##HC": 8006,
      "##tum": 8007,
      "##usst": 8008,
      "ng": 8009,
      "##inter": 8010,
      "##infektion": 8011,
      "##ständiger": 8012,
      "besonders": 8013,
      "##olus": 8014,
      "##ektiven": 8015,
      "##stenose": 8016,
      "##schlingen": 8017,
      "##lia": 8018,
      "##otomie": 8019,
      "Diabetes": 8020,
      "Resistenz": 8021,
      "Einsch": 8022,
      "Muskel": 8023,
      "CA": 8024,
      "##gredient": 8025,
      "##reck": 8026,
      "Handgelenk": 8027,
      "##prot": 8028,
      "Faktoren": 8029,
      "Nierenz": 8030,
      "##11": 8031,
      "##TE": 8032,
      "##opro": 8033,
      "vorliegenden": 8034,
      "Lä": 8035,
      "kompl": 8036,
      "relevanten": 8037,
      "konfluierenden": 8038,
      "##züglich": 8039,
      "##reif": 8040,
      "Kap": 8041,
      "##enpro": 8042,
      "##sorge": 8043,
      "##öl": 8044,
      "sek": 8045,
      "##orn": 8046,
      "##gangen": 8047,
      "Infekt": 8048,
      "transvers": 8049,
      "Funktions": 8050,
      "##osa": 8051,
      "Zwerchfell": 8052,
      "Kontrastierung": 8053,
      "##messen": 8054,
      "##phy": 8055,
      "Leuk": 8056,
      "Ureter": 8057,
      "Mammakarzinom": 8058,
      "##mals": 8059,
      "niedr": 8060,
      "beton": 8061,
      "temp": 8062,
      "eingesetzt": 8063,
      "berand": 8064,
      "##hritis": 8065,
      "Belastung": 8066,
      "schlech": 8067,
      "zurück": 8068,
      "abge": 8069,
      "Methode": 8070,
      "##fernung": 8071,
      "##strahl": 8072,
      "Häuf": 8073,
      "##rauch": 8074,
      "##arten": 8075,
      "##blei": 8076,
      "Th": 8077,
      "beider": 8078,
      "Lungengefäß": 8079,
      "struktur": 8080,
      "lä": 8081,
      "##IP": 8082,
      "##ös": 8083,
      "##ranul": 8084,
      "49": 8085,
      "mehreren": 8086,
      "##atte": 8087,
      "##itäten": 8088,
      "##drainage": 8089,
      "##tinuier": 8090,
      "##bein": 8091,
      "Patientinnen": 8092,
      "Poly": 8093,
      "chirurg": 8094,
      "Stehen": 8095,
      "##erven": 8096,
      "##öse": 8097,
      "Krankenhaus": 8098,
      "aktuellen": 8099,
      "##bezogen": 8100,
      "##embol": 8101,
      "Frakturnachweis": 8102,
      "##aticus": 8103,
      "Tumoren": 8104,
      "Univers": 8105,
      "##otis": 8106,
      "Methoden": 8107,
      "TIR": 8108,
      "Unterschiede": 8109,
      "inn": 8110,
      "Zyste": 8111,
      "##liches": 8112,
      "##hält": 8113,
      "Lang": 8114,
      "##komp": 8115,
      "##reten": 8116,
      "perfund": 8117,
      "##ason": 8118,
      "Tabelle": 8119,
      "Align": 8120,
      "subc": 8121,
      "##ulin": 8122,
      "digit": 8123,
      "positiv": 8124,
      "##arakter": 8125,
      "kg": 8126,
      "##legt": 8127,
      "anti": 8128,
      "##edig": 8129,
      "erhöht": 8130,
      "Verletzung": 8131,
      "030": 8132,
      "dazu": 8133,
      "fokale": 8134,
      "##rztin": 8135,
      "ana": 8136,
      "findet": 8137,
      "statt": 8138,
      "##ult": 8139,
      "53": 8140,
      "Nu": 8141,
      "Konstante": 8142,
      "##basis": 8143,
      "Fort": 8144,
      "Humer": 8145,
      "##gs": 8146,
      "AF": 8147,
      "##ünf": 8148,
      "Score": 8149,
      "konvention": 8150,
      "##TA": 8151,
      "Leben": 8152,
      "##eduktion": 8153,
      "einge": 8154,
      "##tikul": 8155,
      "Them": 8156,
      "Diskus": 8157,
      "##anzen": 8158,
      "Basis": 8159,
      "##dienter": 8160,
      "Chemotherapie": 8161,
      "##var": 8162,
      "##tigkeit": 8163,
      "Insp": 8164,
      "##iterfas": 8165,
      "Auftrags": 8166,
      "Stenosen": 8167,
      "##irm": 8168,
      "hohe": 8169,
      "suspekter": 8170,
      "##sophagus": 8171,
      "##dauer": 8172,
      "ilia": 8173,
      "äuß": 8174,
      "##ediglich": 8175,
      "##ahme": 8176,
      "51": 8177,
      "max": 8178,
      "##def": 8179,
      "gilt": 8180,
      "##hol": 8181,
      "##ieber": 8182,
      "Erg": 8183,
      "##ack": 8184,
      "Erfahr": 8185,
      "##astase": 8186,
      "##undes": 8187,
      "56": 8188,
      "lässt": 8189,
      "Verkalkungen": 8190,
      "nun": 8191,
      "durchmessen": 8192,
      "54": 8193,
      "##inalen": 8194,
      "Por": 8195,
      "Weitere": 8196,
      "##stellen": 8197,
      "##essung": 8198,
      "kran": 8199,
      "Folgen": 8200,
      "##üss": 8201,
      "Autoren": 8202,
      "Dep": 8203,
      "vora": 8204,
      "##äter": 8205,
      "##sifikation": 8206,
      "##verkalkungen": 8207,
      "##atio": 8208,
      "Ausgeprägte": 8209,
      "zereb": 8210,
      "Kontrastmittela": 8211,
      "##ina": 8212,
      "##odul": 8213,
      "vorhand": 8214,
      "TIRM": 8215,
      "höhergradige": 8216,
      "Nerven": 8217,
      "station": 8218,
      "schlank": 8219,
      "Dys": 8220,
      "konstant": 8221,
      "##atitis": 8222,
      "körper": 8223,
      "##pe": 8224,
      "Myel": 8225,
      "Mammographie": 8226,
      "##ösen": 8227,
      "dif": 8228,
      "Aufh": 8229,
      "nahe": 8230,
      "##prü": 8231,
      "Zw": 8232,
      "wichtig": 8233,
      "flor": 8234,
      "gefüllt": 8235,
      "##astom": 8236,
      "br": 8237,
      "Kosten": 8238,
      "##kontrolle": 8239,
      "##dern": 8240,
      "Mittellin": 8241,
      "##geschlossen": 8242,
      "behandelt": 8243,
      "lag": 8244,
      "knöcher": 8245,
      "##noe": 8246,
      "retroperitone": 8247,
      "Personen": 8248,
      "##tentor": 8249,
      "seitengleich": 8250,
      "##gestell": 8251,
      "Enhancement": 8252,
      "Häm": 8253,
      "Humerus": 8254,
      "Bewegungs": 8255,
      "##merkung": 8256,
      "meisten": 8257,
      "weitgehend": 8258,
      "##folge": 8259,
      "##ksamkeit": 8260,
      "##gungs": 8261,
      "femoralis": 8262,
      "Myok": 8263,
      "##zentr": 8264,
      "Kriterien": 8265,
      "##änge": 8266,
      "##leck": 8267,
      "as": 8268,
      "##ram": 8269,
      "T2w": 8270,
      "##uber": 8271,
      "##ndarm": 8272,
      "siehe": 8273,
      "198": 8274,
      "Lungengefäßzeichnung": 8275,
      "##ähl": 8276,
      "##abilit": 8277,
      "##kor": 8278,
      "Blutkultur": 8279,
      "gute": 8280,
      "##enie": 8281,
      "##alie": 8282,
      "wegen": 8283,
      "73": 8284,
      "Folge": 8285,
      "##out": 8286,
      "Auss": 8287,
      "Elekt": 8288,
      "##stär": 8289,
      "behandel": 8290,
      "hinsichtlich": 8291,
      "Co": 8292,
      "Diffusions": 8293,
      "##ät": 8294,
      "iden": 8295,
      "intrakranielle": 8296,
      "entlang": 8297,
      "##operativ": 8298,
      "akzentu": 8299,
      "##Klinikum": 8300,
      "kontrastiert": 8301,
      "degenerativen": 8302,
      "Aufgrund": 8303,
      "Beide": 8304,
      "kl": 8305,
      "##versorgung": 8306,
      "##ßen": 8307,
      "##infarkt": 8308,
      "##hib": 8309,
      "##wendig": 8310,
      "Ern": 8311,
      "Fragen": 8312,
      "##schmäl": 8313,
      "##ephal": 8314,
      "##Labor": 8315,
      "##vist": 8316,
      "##blick": 8317,
      "dargestellt": 8318,
      "##ormon": 8319,
      "##sive": 8320,
      "fläch": 8321,
      "Vir": 8322,
      "##greich": 8323,
      "sekund": 8324,
      "##ECT": 8325,
      "##telle": 8326,
      "Verwendung": 8327,
      "akute": 8328,
      "##geschritten": 8329,
      "3D": 8330,
      "Auswertung": 8331,
      "##spro": 8332,
      "Frü": 8333,
      "ster": 8334,
      "Ärztin": 8335,
      "seitlich": 8336,
      "Verbesserung": 8337,
      "##yel": 8338,
      "intraven": 8339,
      "##gegen": 8340,
      "##ufen": 8341,
      "##iasis": 8342,
      "for": 8343,
      "malignitätssuspekten": 8344,
      "Rück": 8345,
      "rechter": 8346,
      "Rekt": 8347,
      "##ortader": 8348,
      "##raft": 8349,
      "raumfordernden": 8350,
      "##igne": 8351,
      "Zeitpunkt": 8352,
      "Oberlappen": 8353,
      "##venen": 8354,
      "##Er": 8355,
      "Rö": 8356,
      "Geh": 8357,
      "mikro": 8358,
      "liegend": 8359,
      "##ovaskul": 8360,
      "Pfortader": 8361,
      "##eller": 8362,
      "##abilität": 8363,
      "##wiegend": 8364,
      "uns": 8365,
      "Rückenlage": 8366,
      "komplikationsloser": 8367,
      "Radius": 8368,
      "##dehnung": 8369,
      "##spar": 8370,
      "erreicht": 8371,
      "altersentsprech": 8372,
      "Reh": 8373,
      "##rug": 8374,
      "##eitet": 8375,
      "##oben": 8376,
      "Artik": 8377,
      "##antwort": 8378,
      "Ellen": 8379,
      "57": 8380,
      "##ießen": 8381,
      "##Unter": 8382,
      "Schn": 8383,
      "##viden": 8384,
      "verl": 8385,
      "Reduktion": 8386,
      "Zudem": 8387,
      "Dosis": 8388,
      "axillär": 8389,
      "##requenz": 8390,
      "##asch": 8391,
      "##Fall": 8392,
      "tro": 8393,
      "fachkundige": 8394,
      "##schaften": 8395,
      "Alters": 8396,
      "Verb": 8397,
      "em": 8398,
      "##erweise": 8399,
      "Computert": 8400,
      "##tions": 8401,
      "##hemisphären": 8402,
      "Wirkung": 8403,
      "##zeitig": 8404,
      "außen": 8405,
      "Ko": 8406,
      "tä": 8407,
      "##Untersuch": 8408,
      "Zwei": 8409,
      "DHC": 8410,
      "72": 8411,
      "##ichtete": 8412,
      "Echogenität": 8413,
      "##öff": 8414,
      "erne": 8415,
      "58": 8416,
      "ermöglich": 8417,
      "##ker": 8418,
      "##reichend": 8419,
      "anal": 8420,
      "59": 8421,
      "##auen": 8422,
      "mäßig": 8423,
      "Von": 8424,
      "##ni": 8425,
      "Famil": 8426,
      "##bio": 8427,
      "commun": 8428,
      "##rauben": 8429,
      "##flä": 8430,
      "##fil": 8431,
      "##okranium": 8432,
      "##rest": 8433,
      "##riebenen": 8434,
      "SPECT": 8435,
      "Vorhof": 8436,
      "gemessen": 8437,
      "Geschlech": 8438,
      "hinter": 8439,
      "##isiert": 8440,
      "Wei": 8441,
      "relativ": 8442,
      "##til": 8443,
      "##IB": 8444,
      "##uration": 8445,
      "angegeben": 8446,
      "##oth": 8447,
      "##obacht": 8448,
      "Anastom": 8449,
      "Stunden": 8450,
      "gek": 8451,
      "##inten": 8452,
      "jähr": 8453,
      "Minuten": 8454,
      "##istel": 8455,
      "signifikanten": 8456,
      "echo": 8457,
      "##hle": 8458,
      "##reen": 8459,
      "Vergleiche": 8460,
      "mö": 8461,
      "##benso": 8462,
      "LA": 8463,
      "Vorgehen": 8464,
      "Wund": 8465,
      "##schließlich": 8466,
      "##ae": 8467,
      "Neph": 8468,
      "##osynthese": 8469,
      "erweiter": 8470,
      "##hinder": 8471,
      "gezeigt": 8472,
      "Kontakt": 8473,
      "zys": 8474,
      "lateralen": 8475,
      "Injektion": 8476,
      "##ietal": 8477,
      "##ellschaft": 8478,
      "regelm": 8479,
      "Ultravist": 8480,
      "auftreten": 8481,
      "##atri": 8482,
      "##tierten": 8483,
      "Intensiv": 8484,
      "##störung": 8485,
      "##äßige": 8486,
      "Schritt": 8487,
      "Dichte": 8488,
      "ambul": 8489,
      "Eigen": 8490,
      "Verfü": 8491,
      "ep": 8492,
      "handelt": 8493,
      "Unterfeld": 8494,
      "##zeichnet": 8495,
      "initi": 8496,
      "NBKS": 8497,
      "darauf": 8498,
      "Defekt": 8499,
      "ED": 8500,
      "einsehbaren": 8501,
      "Ellenbogen": 8502,
      "##verletz": 8503,
      "pra": 8504,
      "Seh": 8505,
      "##atal": 8506,
      "davon": 8507,
      "teilweise": 8508,
      "entsprechende": 8509,
      "##seku": 8510,
      "##dis": 8511,
      "Drü": 8512,
      "Knoten": 8513,
      "Sonographisch": 8514,
      "##schirm": 8515,
      "verz": 8516,
      "##gres": 8517,
      "negativ": 8518,
      "Auß": 8519,
      "Lux": 8520,
      "##muster": 8521,
      "##pol": 8522,
      "##koh": 8523,
      "Jugend": 8524,
      "Hern": 8525,
      "370": 8526,
      "hohen": 8527,
      "##parameter": 8528,
      "Gewebe": 8529,
      "Gebur": 8530,
      "##erungen": 8531,
      "pancre": 8532,
      "sod": 8533,
      "##nie": 8534,
      "##urop": 8535,
      "notwendig": 8536,
      "NTX": 8537,
      "##verlagerung": 8538,
      "Fieber": 8539,
      "Sensi": 8540,
      "Po": 8541,
      "##öße": 8542,
      "63": 8543,
      "Zusammenfassung": 8544,
      "Dekomp": 8545,
      "Herdbefunde": 8546,
      "##ogene": 8547,
      "Kolon": 8548,
      "##diagnostik": 8549,
      "Stadium": 8550,
      "ossärer": 8551,
      "Neurokranium": 8552,
      "##einander": 8553,
      "car": 8554,
      "##AG": 8555,
      "##ober": 8556,
      "##egalie": 8557,
      "##plen": 8558,
      "Skeletts": 8559,
      "kontro": 8560,
      "Ursache": 8561,
      "##Ergebnis": 8562,
      "625": 8563,
      "chronischen": 8564,
      "##ite": 8565,
      "##befundung": 8566,
      "Bildschirm": 8567,
      "perfundiert": 8568,
      "##ance": 8569,
      "##dro": 8570,
      "vorhanden": 8571,
      "Befunde": 8572,
      "##alz": 8573,
      "##uren": 8574,
      "aerob": 8575,
      "Ödem": 8576,
      "##heum": 8577,
      "Fokus": 8578,
      "##rosis": 8579,
      "##hrombose": 8580,
      "deutliche": 8581,
      "84": 8582,
      "##daten": 8583,
      "Unveränderte": 8584,
      "Diskussion": 8585,
      "Knöch": 8586,
      "sodass": 8587,
      "##änomen": 8588,
      "##säulen": 8589,
      "kardiopulmon": 8590,
      "##mente": 8591,
      "350": 8592,
      "##gefäße": 8593,
      "Ret": 8594,
      "Destruktionen": 8595,
      "##rig": 8596,
      "##imal": 8597,
      "eingeb": 8598,
      "Vmax": 8599,
      "ME": 8600,
      "Knochend": 8601,
      "cereb": 8602,
      "Dens": 8603,
      "aut": 8604,
      "Ac": 8605,
      "spezie": 8606,
      "anatom": 8607,
      "##verlauf": 8608,
      "##par": 8609,
      "Kategorie": 8610,
      "Störungen": 8611,
      "Abszess": 8612,
      "unab": 8613,
      "anhand": 8614,
      "##zieh": 8615,
      "Nierentrans": 8616,
      "##ez": 8617,
      "Fremdmaterial": 8618,
      "vergrößerter": 8619,
      "##Geb": 8620,
      "##onare": 8621,
      "Entschei": 8622,
      "Stamm": 8623,
      "Zusammenfassende": 8624,
      "einliegen": 8625,
      "Komment": 8626,
      "##fts": 8627,
      "Metastas": 8628,
      "erhöh": 8629,
      "Evalu": 8630,
      "##ysp": 8631,
      "##romin": 8632,
      "dire": 8633,
      "Platten": 8634,
      "##äl": 8635,
      "##Untersuchungs": 8636,
      "beein": 8637,
      "67": 8638,
      "##ialis": 8639,
      "##ml": 8640,
      "##ctus": 8641,
      "maxillaris": 8642,
      "Kiefer": 8643,
      "Drüsen": 8644,
      "##störungen": 8645,
      "##figuration": 8646,
      "##ziden": 8647,
      "entsp": 8648,
      "##ysi": 8649,
      "Morb": 8650,
      "Wirbelsäulen": 8651,
      "##raum": 8652,
      "##uspekt": 8653,
      "Länge": 8654,
      "medizinisch": 8655,
      "poster": 8656,
      "zunächst": 8657,
      "Mehrere": 8658,
      "##ätzlich": 8659,
      "##Untersuchungsauftrag": 8660,
      "Bestimmung": 8661,
      "##iertem": 8662,
      "##unt": 8663,
      "pancreaticus": 8664,
      "##tierte": 8665,
      "##behandlung": 8666,
      "##lungen": 8667,
      "Osteochond": 8668,
      "66": 8669,
      "96": 8670,
      "basalen": 8671,
      "##blut": 8672,
      "Lungenabschnitten": 8673,
      "Homogen": 8674,
      "##IS": 8675,
      "Beginn": 8676,
      "Verschluss": 8677,
      "AM": 8678,
      "##utzen": 8679,
      "2007": 8680,
      "##nde": 8681,
      "##klärung": 8682,
      "##itus": 8683,
      "##tragen": 8684,
      "##räch": 8685,
      "##förmiger": 8686,
      "##spiels": 8687,
      "Anmerkung": 8688,
      "hatte": 8689,
      "Allgemein": 8690,
      "68": 8691,
      "##hnen": 8692,
      "verminder": 8693,
      "Qual": 8694,
      "erfasst": 8695,
      "allgemein": 8696,
      "Kurz": 8697,
      "Zahl": 8698,
      "Je": 8699,
      "Antikörper": 8700,
      "##geboren": 8701,
      "Skelett": 8702,
      "kortik": 8703,
      "##̈brigen": 8704,
      "morphologisch": 8705,
      "##rangig": 8706,
      "##artef": 8707,
      "Bildschirmbefundung": 8708,
      "erforderlich": 8709,
      "Bak": 8710,
      "Makro": 8711,
      "Wandverdick": 8712,
      "Grenz": 8713,
      "untersuchten": 8714,
      "viele": 8715,
      "##arterie": 8716,
      "Ovar": 8717,
      "wahrscheinlich": 8718,
      "jetzt": 8719,
      "##kn": 8720,
      "##ull": 8721,
      "Kompression": 8722,
      "allein": 8723,
      "berücksich": 8724,
      "Ärzte": 8725,
      "stei": 8726,
      "Auftreten": 8727,
      "##ehlungen": 8728,
      "##kont": 8729,
      "unterschiedlichen": 8730,
      "Hilus": 8731,
      "##efon": 8732,
      "PC": 8733,
      "maxim": 8734,
      "zentralen": 8735,
      "##iation": 8736,
      "kam": 8737,
      "##dip": 8738,
      "Kleine": 8739,
      "##olek": 8740,
      "Spinalkanal": 8741,
      "Kommentar": 8742,
      "bil": 8743,
      "Fal": 8744,
      "##gter": 8745,
      "folgenden": 8746,
      "Dauer": 8747,
      "keinen": 8748,
      "##osit": 8749,
      "Kind": 8750,
      "Schenkel": 8751,
      "Beispiel": 8752,
      "Stress": 8753,
      "##ös": 8754,
      "Referenz": 8755,
      "##ote": 8756,
      "##tiz": 8757,
      "Versor": 8758,
      "Entfernung": 8759,
      "##okument": 8760,
      "##gangl": 8761,
      "##llel": 8762,
      "ähn": 8763,
      "##nkt": 8764,
      "##gende": 8765,
      "bekannter": 8766,
      "##ical": 8767,
      "Drittel": 8768,
      "##ammer": 8769,
      "##führung": 8770,
      "verschiedene": 8771,
      "##20": 8772,
      "eff": 8773,
      "Defin": 8774,
      "##endes": 8775,
      "Sig": 8776,
      "##acher": 8777,
      "Erb": 8778,
      "##KG": 8779,
      "##jahr": 8780,
      "##gefüll": 8781,
      "Tubus": 8782,
      "invas": 8783,
      "Belüftungs": 8784,
      "Skler": 8785,
      "hypoden": 8786,
      "##spielsweise": 8787,
      "zusätzlich": 8788,
      "wenig": 8789,
      "##spitze": 8790,
      "Beruf": 8791,
      "unserer": 8792,
      "Mittellinien": 8793,
      "anaerob": 8794,
      "verwendet": 8795,
      "Expression": 8796,
      "schne": 8797,
      "außer": 8798,
      "Perfusions": 8799,
      "##gnose": 8800,
      "statis": 8801,
      "##fern": 8802,
      "random": 8803,
      "Ansp": 8804,
      "Unterschied": 8805,
      "##stamm": 8806,
      "Arthrose": 8807,
      "##ektoral": 8808,
      "##oche": 8809,
      "häufiger": 8810,
      "##genden": 8811,
      "##lob": 8812,
      "Parameter": 8813,
      "dislozierte": 8814,
      "##lo": 8815,
      "##verd": 8816,
      "Seite": 8817,
      "We": 8818,
      "Zentr": 8819,
      "seiner": 8820,
      "##rienti": 8821,
      "##gramm": 8822,
      "##opharmak": 8823,
      "RADS": 8824,
      "##ierendes": 8825,
      "kleiner": 8826,
      "##örder": 8827,
      "lediglich": 8828,
      "Aden": 8829,
      "Ernähr": 8830,
      "##av": 8831,
      "##förmige": 8832,
      "Nebenwirkungen": 8833,
      "Dünndarm": 8834,
      "Materialbruch": 8835,
      "61": 8836,
      "##aging": 8837,
      "##trophie": 8838,
      "##GF": 8839,
      "Kontrastmittelgabe": 8840,
      "##yspnoe": 8841,
      "Lip": 8842,
      "koronar": 8843,
      "##uliert": 8844,
      "001": 8845,
      "##verfahren": 8846,
      "##phyla": 8847,
      "MRA": 8848,
      "entfer": 8849,
      "Konsolid": 8850,
      "gener": 8851,
      "Regre": 8852,
      "Ansonsten": 8853,
      "ren": 8854,
      "CR": 8855,
      "97": 8856,
      "85": 8857,
      "##ologen": 8858,
      "mitabgebildeten": 8859,
      "Narben": 8860,
      "Ima": 8861,
      "anges": 8862,
      "##hilfe": 8863,
      "##frakturen": 8864,
      "Ref": 8865,
      "Gastro": 8866,
      "Finger": 8867,
      "Verschl": 8868,
      "Proband": 8869,
      "Beurteilbarkeit": 8870,
      "##ica": 8871,
      "geeig": 8872,
      "Korrelation": 8873,
      "ergibt": 8874,
      "Vorder": 8875,
      "##sä": 8876,
      "gehör": 8877,
      "##arbeit": 8878,
      "erheb": 8879,
      "Bundes": 8880,
      "Stim": 8881,
      "##VI": 8882,
      "##antit": 8883,
      "empfehlen": 8884,
      "Zei": 8885,
      "##phas": 8886,
      "##det": 8887,
      "##kohol": 8888,
      "erfolgreich": 8889,
      "##gerechte": 8890,
      "tief": 8891,
      "Plas": 8892,
      "Hintergrund": 8893,
      "innen": 8894,
      "Erfol": 8895,
      "##rand": 8896,
      "##volumen": 8897,
      "Überle": 8898,
      "Interhemisphären": 8899,
      "Computertomographie": 8900,
      "##path": 8901,
      "Beteil": 8902,
      "Retroperitone": 8903,
      "Dieser": 8904,
      "##IBI": 8905,
      "Sicher": 8906,
      "intervertebral": 8907,
      "später": 8908,
      "demarkierten": 8909,
      "##verlust": 8910,
      "Deck": 8911,
      "##ovist": 8912,
      "69": 8913,
      "##kre": 8914,
      "99m": 8915,
      "größerer": 8916,
      "sinn": 8917,
      "##ografie": 8918,
      "##fähigkeit": 8919,
      "mediastinal": 8920,
      "##cess": 8921,
      "##hä": 8922,
      "beeinfl": 8923,
      "Interhemisphärenspalt": 8924,
      "##ores": 8925,
      "Car": 8926,
      "Tri": 8927,
      "länger": 8928,
      "narb": 8929,
      "##TP": 8930,
      "##becken": 8931,
      "##ental": 8932,
      "communis": 8933,
      "##ziehung": 8934,
      "SS": 8935,
      "##our": 8936,
      "inhomogen": 8937,
      "##iatr": 8938,
      "SU": 8939,
      "##ohr": 8940,
      "Tod": 8941,
      "##GR": 8942,
      "moder": 8943,
      "pulmonalvenöse": 8944,
      "##rektur": 8945,
      "vier": 8946,
      "betrug": 8947,
      "##atischer": 8948,
      "Situation": 8949,
      "at": 8950,
      "##tungs": 8951,
      "Regelrechtes": 8952,
      "anderer": 8953,
      "Ruhe": 8954,
      "Mammason": 8955,
      "Begl": 8956,
      "##omer": 8957,
      "partiell": 8958,
      "##tierung": 8959,
      "Direkt": 8960,
      "Mas": 8961,
      "steht": 8962,
      "##rogen": 8963,
      "Plan": 8964,
      "messend": 8965,
      "##rigen": 8966,
      "Während": 8967,
      "##otor": 8968,
      "##deck": 8969,
      "##osp": 8970,
      "Gesichts": 8971,
      "Fistel": 8972,
      "zunehmend": 8973,
      "2006": 8974,
      "subkutan": 8975,
      "##skel": 8976,
      "##yph": 8977,
      "##oliose": 8978,
      "##ou": 8979,
      "postoperativ": 8980,
      "##oskopie": 8981,
      "malignom": 8982,
      "Prozesses": 8983,
      "##asp": 8984,
      "fol": 8985,
      "unmittel": 8986,
      "##uen": 8987,
      "Plaqu": 8988,
      "intervertebralis": 8989,
      "##videnz": 8990,
      "Speich": 8991,
      "##erungs": 8992,
      "Elter": 8993,
      "Röntgen": 8994,
      "##ringen": 8995,
      "##lass": 8996,
      "wissenschaft": 8997,
      "ausreichend": 8998,
      "Cox": 8999,
      "Nierenbecken": 9000,
      "Ausdehnung": 9001,
      "arteriellen": 9002,
      "##kehr": 9003,
      "##bleiben": 9004,
      "##reaktion": 9005,
      "zusätz": 9006,
      "##bedingungen": 9007,
      "##üssen": 9008,
      "Verdichtung": 9009,
      "##roph": 9010,
      "##ers": 9011,
      "Leberz": 9012,
      "##plasie": 9013,
      "Konzentra": 9014,
      "##haft": 9015,
      "##ätzung": 9016,
      "##reislauf": 9017,
      "größeren": 9018,
      "Ganzkörper": 9019,
      "##ße": 9020,
      "Möglichkeit": 9021,
      "früh": 9022,
      "VII": 9023,
      "Fix": 9024,
      "Multiple": 9025,
      "##ichteten": 9026,
      "##kalkung": 9027,
      "##usten": 9028,
      "##13": 9029,
      "##insender": 9030,
      "intrahep": 9031,
      "##peri": 9032,
      "##ulus": 9033,
      "weiterer": 9034,
      "Eltern": 9035,
      "##ganglien": 9036,
      "##erkrankungen": 9037,
      "bekannte": 9038,
      "##under": 9039,
      "##zirkul": 9040,
      "Versorgungs": 9041,
      "ausgeprä": 9042,
      "##einträch": 9043,
      "Beckens": 9044,
      "##18": 9045,
      "ents": 9046,
      "mediastinale": 9047,
      "Schlaf": 9048,
      "##ilep": 9049,
      "scheint": 9050,
      "Konkremente": 9051,
      "##akten": 9052,
      "ICB": 9053,
      "##region": 9054,
      "Cli": 9055,
      "##ches": 9056,
      "Vgl": 9057,
      "Pneumothoraxnachweis": 9058,
      "Impf": 9059,
      "Stoff": 9060,
      "##ktions": 9061,
      "##abel": 9062,
      "##siven": 9063,
      "Bezug": 9064,
      "Lockerung": 9065,
      "Reiz": 9066,
      "Oberschenkel": 9067,
      "PICC": 9068,
      "Erwachsen": 9069,
      "##tisches": 9070,
      "##läsionen": 9071,
      "rund": 9072,
      "##ränkte": 9073,
      "##osph": 9074,
      "##streck": 9075,
      "frischer": 9076,
      "##CE": 9077,
      "Deutliche": 9078,
      "beispielsweise": 9079,
      "He": 9080,
      "Trachea": 9081,
      "Rev": 9082,
      "##alem": 9083,
      "##gradiger": 9084,
      "##entlich": 9085,
      "mon": 9086,
      "Mittelständiger": 9087,
      "##eicht": 9088,
      "occ": 9089,
      "##hlung": 9090,
      "abgebildeten": 9091,
      "pol": 9092,
      "Chron": 9093,
      "##ventrikel": 9094,
      "Informationen": 9095,
      "##klid": 9096,
      "Dekompens": 9097,
      "Fil": 9098,
      "##nehmer": 9099,
      "##igt": 9100,
      "Anstieg": 9101,
      "Luxation": 9102,
      "##bek": 9103,
      "##lie": 9104,
      "##messung": 9105,
      "##omegalie": 9106,
      "##ütz": 9107,
      "##bedingt": 9108,
      "bedingt": 9109,
      "IL": 9110,
      "Prognose": 9111,
      "##aft": 9112,
      "differenz": 9113,
      "##so": 9114,
      "umsch": 9115,
      "maximal": 9116,
      "untere": 9117,
      "##wertet": 9118,
      "##beg": 9119,
      "fib": 9120,
      "Aktivität": 9121,
      "##hält": 9122,
      "##hals": 9123,
      "##stitution": 9124,
      "76": 9125,
      "bestä": 9126,
      "geschlossen": 9127,
      "##gradig": 9128,
      "Verfügung": 9129,
      "##risiko": 9130,
      "74": 9131,
      "Vis": 9132,
      "##gaben": 9133,
      "##lind": 9134,
      "##ulmonal": 9135,
      "##valenz": 9136,
      "Wenn": 9137,
      "Feh": 9138,
      "##emb": 9139,
      "##mantel": 9140,
      "##llt": 9141,
      "Wirk": 9142,
      "##orpel": 9143,
      "immun": 9144,
      "Hypot": 9145,
      "vollständ": 9146,
      "##einsam": 9147,
      "Fx": 9148,
      "Entzünd": 9149,
      "Lebensqualität": 9150,
      "##MA": 9151,
      "geht": 9152,
      "Sicht": 9153,
      "##vex": 9154,
      "Colon": 9155,
      "##NT": 9156,
      "Fac": 9157,
      "Protein": 9158,
      "##spezifische": 9159,
      "Seitenventrikel": 9160,
      "chronische": 9161,
      "##fr": 9162,
      "##trä": 9163,
      "älter": 9164,
      "##fällig": 9165,
      "Imp": 9166,
      "Unterk": 9167,
      "##zess": 9168,
      "Peri": 9169,
      "##fälle": 9170,
      "disku": 9171,
      "FD": 9172,
      "Alle": 9173,
      "##troffen": 9174,
      "##arem": 9175,
      "##okumentation": 9176,
      "##aps": 9177,
      "##sön": 9178,
      "durchschnitt": 9179,
      "bezüglich": 9180,
      "Saum": 9181,
      "Modell": 9182,
      "Symptomatik": 9183,
      "Granul": 9184,
      "##fläche": 9185,
      "Mittellinienverlagerung": 9186,
      "Fettgewe": 9187,
      "wür": 9188,
      "Rehabilit": 9189,
      "Ventrikelsystem": 9190,
      "##agement": 9191,
      "##fel": 9192,
      "Patell": 9193,
      "##ahlen": 9194,
      "Liquora": 9195,
      "##bildungen": 9196,
      "##lavia": 9197,
      "##ofora": 9198,
      "##ust": 9199,
      "aktiv": 9200,
      "##rag": 9201,
      "Elektro": 9202,
      "##ücken": 9203,
      "Genese": 9204,
      "Weite": 9205,
      "identifiz": 9206,
      "##rinzip": 9207,
      "Schleimhautschwellung": 9208,
      "##platten": 9209,
      "zwar": 9210,
      "##schall": 9211,
      "kontroll": 9212,
      "medial": 9213,
      "##rezidiv": 9214,
      "Unauffälliger": 9215,
      "Lappen": 9216,
      "art": 9217,
      "COPD": 9218,
      "Hypert": 9219,
      "##35": 9220,
      "##fora": 9221,
      "Wirksamkeit": 9222,
      "iliaca": 9223,
      "Ende": 9224,
      "##verhalten": 9225,
      "Ösophagus": 9226,
      "Dyspnoe": 9227,
      "##blasen": 9228,
      "Extremität": 9229,
      "ausgeprä": 9230,
      "##raler": 9231,
      "Stent": 9232,
      "Prot": 9233,
      "##alc": 9234,
      "##stütz": 9235,
      "##onstration": 9236,
      "vorder": 9237,
      "##leiten": 9238,
      "zudem": 9239,
      "##strukturen": 9240,
      "Bitte": 9241,
      "##klärung": 9242,
      "##wurzel": 9243,
      "Wesent": 9244,
      "Infektionen": 9245,
      "##heil": 9246,
      "Lei": 9247,
      "La": 9248,
      "suspekte": 9249,
      "Anteile": 9250,
      "##up": 9251,
      "##hren": 9252,
      "Diskrete": 9253,
      "erscheint": 9254,
      "##zusch": 9255,
      "trotz": 9256,
      "##ester": 9257,
      "##ächlich": 9258,
      "inf": 9259,
      "##racht": 9260,
      "##nation": 9261,
      "Kont": 9262,
      "seine": 9263,
      "Bis": 9264,
      "jugularis": 9265,
      "##illin": 9266,
      "##räf": 9267,
      "##ätze": 9268,
      "##äßig": 9269,
      "##phänomen": 9270,
      "miterfas": 9271,
      "Arch": 9272,
      "##thm": 9273,
      "durchmessend": 9274,
      "betonte": 9275,
      "##arthro": 9276,
      "As": 9277,
      "##drüsen": 9278,
      "Radiopharmak": 9279,
      "Symmetr": 9280,
      "##UR": 9281,
      "Betroffen": 9282,
      "##oxi": 9283,
      "Versch": 9284,
      "##okumen": 9285,
      "##pplikation": 9286,
      "##tivität": 9287,
      "dorsalen": 9288,
      "bie": 9289,
      "82": 9290,
      "Glu": 9291,
      "Infark": 9292,
      "ret": 9293,
      "##utane": 9294,
      "##eth": 9295,
      "##serv": 9296,
      "einzelne": 9297,
      "paraa": 9298,
      "##mat": 9299,
      "##ollen": 9300,
      "Darmschlingen": 9301,
      "Durchführung": 9302,
      "entscheiden": 9303,
      "##ohn": 9304,
      "mas": 9305,
      "direkt": 9306,
      "##reening": 9307,
      "##zidenz": 9308,
      "Hist": 9309,
      "##elche": 9310,
      "##ordnung": 9311,
      "Weichteilmantel": 9312,
      "TSH": 9313,
      "phy": 9314,
      "##liak": 9315,
      "##klus": 9316,
      "zunehmende": 9317,
      "Schädelbasis": 9318,
      "##ay": 9319,
      "erhöhte": 9320,
      "Gem": 9321,
      "Kontrastmittelapplikation": 9322,
      "##vergleich": 9323,
      "##ünsch": 9324,
      "##izer": 9325,
      "##thy": 9326,
      "##onen": 9327,
      "##hängigkeit": 9328,
      "Hinterk": 9329,
      "##geführt": 9330,
      "komplikationslose": 9331,
      "coronar": 9332,
      "##zeu": 9333,
      "##keits": 9334,
      "##ellungen": 9335,
      "Arteri": 9336,
      "##gredienz": 9337,
      "##dient": 9338,
      "##mann": 9339,
      "konstante": 9340,
      "Lymphom": 9341,
      "occip": 9342,
      "Rektum": 9343,
      "##pan": 9344,
      "jeweil": 9345,
      "##restrik": 9346,
      "tum": 9347,
      "Kar": 9348,
      "78": 9349,
      "physi": 9350,
      "TA": 9351,
      "Zyt": 9352,
      "##diagnose": 9353,
      "##ain": 9354,
      "Infiltration": 9355,
      "##LT": 9356,
      "Top": 9357,
      "##med": 9358,
      "##ultur": 9359,
      "situ": 9360,
      "AP": 9361,
      "Aneurysma": 9362,
      "ul": 9363,
      "verbunden": 9364,
      "##anteil": 9365,
      "Nuklid": 9366,
      "Mediastinal": 9367,
      "Wahl": 9368,
      "pneumonisches": 9369,
      "##tsystem": 9370,
      "##atisiert": 9371,
      "##abol": 9372,
      "Zentra": 9373,
      "Liquorzirkul": 9374,
      "Tc": 9375,
      "Weit": 9376,
      "Hypoph": 9377,
      "Metastasierung": 9378,
      "Schluss": 9379,
      "beide": 9380,
      "##mas": 9381,
      "2005": 9382,
      "71": 9383,
      "Allerdings": 9384,
      "anterior": 9385,
      "##sil": 9386,
      "##vel": 9387,
      "##öpf": 9388,
      "int": 9389,
      "subclavia": 9390,
      "Etw": 9391,
      "Schlagan": 9392,
      "##IC": 9393,
      "älter": 9394,
      "low": 9395,
      "SUV": 9396,
      "poten": 9397,
      "kontinuier": 9398,
      "##tt": 9399,
      "Shunt": 9400,
      "progrediente": 9401,
      "##aran": 9402,
      "##30": 9403,
      "sonst": 9404,
      "##prim": 9405,
      "periphere": 9406,
      "##thes": 9407,
      "Dis": 9408,
      "häufigsten": 9409,
      "unauffälliges": 9410,
      "##läuf": 9411,
      "##körper": 9412,
      "Depression": 9413,
      "vergrößerte": 9414,
      "Klassifikation": 9415,
      "##raten": 9416,
      "inguinal": 9417,
      "77": 9418,
      "Frageb": 9419,
      "geringen": 9420,
      "minimal": 9421,
      "Therap": 9422,
      "##MI": 9423,
      "##teu": 9424,
      "infer": 9425,
      "##troph": 9426,
      "sollen": 9427,
      "Röntgen": 9428,
      "Probanden": 9429,
      "normaler": 9430,
      "##50": 9431,
      "ihren": 9432,
      "Dystelektasen": 9433,
      "##ycin": 9434,
      "Evaluation": 9435,
      "konseku": 9436,
      "sonographisch": 9437,
      "Region": 9438,
      "Stabil": 9439,
      "##orose": 9440,
      "beginnen": 9441,
      "Instit": 9442,
      "##echn": 9443,
      "Erken": 9444,
      "Luftein": 9445,
      "##utis": 9446,
      "Ich": 9447,
      "##ielen": 9448,
      "Vorliegen": 9449,
      "floriden": 9450,
      "##ielten": 9451,
      "Leitlinien": 9452,
      "Ander": 9453,
      "##strom": 9454,
      "Lauen": 9455,
      "##belüft": 9456,
      "##ozyt": 9457,
      "Kl": 9458,
      "##NS": 9459,
      "stär": 9460,
      "sagittale": 9461,
      "Lauenstein": 9462,
      "##iae": 9463,
      "entwickelt": 9464,
      "##ikament": 9465,
      "##ziplin": 9466,
      "##embolie": 9467,
      "erhöhten": 9468,
      "Liquorzirkulations": 9469,
      "##stherapie": 9470,
      "##seud": 9471,
      "Raum": 9472,
      "##ortalität": 9473,
      "Nachsorge": 9474,
      "Infiltraten": 9475,
      "stand": 9476,
      "##ück": 9477,
      "##rung": 9478,
      "##hri": 9479,
      "##ity": 9480,
      "erfas": 9481,
      "Bil": 9482,
      "##orte": 9483,
      "##werten": 9484,
      "intravenöser": 9485,
      "ärzt": 9486,
      "Orthop": 9487,
      "##gewicht": 9488,
      "Appen": 9489,
      "hilär": 9490,
      "##skopie": 9491,
      "##tentoriell": 9492,
      "Verm": 9493,
      "##irrh": 9494,
      "beobachtet": 9495,
      "##gän": 9496,
      "Nierentransplantat": 9497,
      "##iew": 9498,
      "##indest": 9499,
      "Beteiligung": 9500,
      "##formation": 9501,
      "primär": 9502,
      "versor": 9503,
      "##idität": 9504,
      "##rechung": 9505,
      "berandet": 9506,
      "##ulären": 9507,
      "##gress": 9508,
      "darstell": 9509,
      "##macher": 9510,
      "Hilfe": 9511,
      "Dot": 9512,
      "entfernt": 9513,
      "##echs": 9514,
      "Bildgebung": 9515,
      "Oberbauchorgane": 9516,
      "##flächen": 9517,
      "##gesetz": 9518,
      "Herr": 9519,
      "Mitarb": 9520,
      "Einleitung": 9521,
      "##amnes": 9522,
      "##patienten": 9523,
      "##isierten": 9524,
      "Cholez": 9525,
      "##erkrankung": 9526,
      "Früh": 9527,
      "Empfeh": 9528,
      "Mel": 9529,
      "Risikofaktoren": 9530,
      "Basal": 9531,
      "schrift": 9532,
      "Vas": 9533,
      "Adip": 9534,
      "Medikation": 9535,
      "##tie": 9536,
      "postoperativen": 9537,
      "##ifestation": 9538,
      "##burg": 9539,
      "ausgeschlossen": 9540,
      "##rolog": 9541,
      "##ophyt": 9542,
      "Neurokraniums": 9543,
      "Woche": 9544,
      "medialen": 9545,
      "Befundung": 9546,
      "##völ": 9547,
      "##ürz": 9548,
      "81": 9549,
      "Skelettsystem": 9550,
      "Alkohol": 9551,
      "Mammasonographie": 9552,
      "##riebene": 9553,
      "##fle": 9554,
      "chronisch": 9555,
      "Mutter": 9556,
      "##gebiet": 9557,
      "Rel": 9558,
      "##umab": 9559,
      "##onnen": 9560,
      "Embol": 9561,
      "Vit": 9562,
      "dokumen": 9563,
      "atyp": 9564,
      "Empfehlungen": 9565,
      "Ductus": 9566,
      "##nei": 9567,
      "##status": 9568,
      "79": 9569,
      "Diffusionsrestrik": 9570,
      "Myokard": 9571,
      "##cessus": 9572,
      "##tation": 9573,
      "##uv": 9574,
      "Osteoporose": 9575,
      "Minderbelüft": 9576,
      "Differenzierung": 9577,
      "##strich": 9578,
      "auslaufender": 9579,
      "##wertig": 9580,
      "Serum": 9581,
      "komplex": 9582,
      "vielen": 9583,
      "Schrauben": 9584,
      "get": 9585,
      "Natives": 9586,
      "Mund": 9587,
      "äußeren": 9588,
      "CVK": 9589,
      "derzeit": 9590,
      "erste": 9591,
      "bleibt": 9592,
      "##berg": 9593,
      "Befunder": 9594,
      "Männer": 9595,
      "Netz": 9596,
      "Metastase": 9597,
      "Axiale": 9598,
      "##ww": 9599,
      "##betont": 9600,
      "pulmonaler": 9601,
      "Cl": 9602,
      "US": 9603,
      "Ig": 9604,
      "##ogni": 9605,
      "Randwinkel": 9606,
      "##ständige": 9607,
      "weisen": 9608,
      "www": 9609,
      "habe": 9610,
      "basale": 9611,
      "intensiv": 9612,
      "Fehl": 9613,
      "breit": 9614,
      "linker": 9615,
      "höhere": 9616,
      "PS": 9617,
      "##sth": 9618,
      "einmal": 9619,
      "Blutdruck": 9620,
      "##azit": 9621,
      "Tre": 9622,
      "##alisierung": 9623,
      "Loc": 9624,
      "##ossen": 9625,
      "##hirn": 9626,
      "extrahepatischen": 9627,
      "entspricht": 9628,
      "Besondere": 9629,
      "##ET": 9630,
      "Osteol": 9631,
      "stabil": 9632,
      "Bekannter": 9633,
      "Position": 9634,
      "Durchführung": 9635,
      "Ursachen": 9636,
      "verfü": 9637,
      "Voll": 9638,
      "tran": 9639,
      "##oms": 9640,
      "sinnvoll": 9641,
      "axilläre": 9642,
      "dorsaler": 9643,
      "196": 9644,
      "##schrei": 9645,
      "Tracer": 9646,
      "Kolle": 9647,
      "##otische": 9648,
      "##ähr": 9649,
      "Skoliose": 9650,
      "##amen": 9651,
      "Beobacht": 9652,
      "##fung": 9653,
      "veränder": 9654,
      "Liquorauf": 9655,
      "##eiger": 9656,
      "Ta": 9657,
      "unmittelbar": 9658,
      "##perfusion": 9659,
      "##aphrag": 9660,
      "##ositas": 9661,
      "83": 9662,
      "##tlich": 9663,
      "##enre": 9664,
      "##Einsender": 9665,
      "##anteile": 9666,
      "##inen": 9667,
      "##lux": 9668,
      "##40": 9669,
      "begl": 9670,
      "##okardi": 9671,
      "bolus": 9672,
      "Int": 9673,
      "##andib": 9674,
      "Parenchymsaum": 9675,
      "##ire": 9676,
      "Uter": 9677,
      "2004": 9678,
      "medikament": 9679,
      "##obil": 9680,
      "Xene": 9681,
      "Lungenarterien": 9682,
      "Fazit": 9683,
      "Inzidenz": 9684,
      "fortgeschritten": 9685,
      "Einen": 9686,
      "##uft": 9687,
      "##RS": 9688,
      "##tix": 9689,
      "##reiche": 9690,
      "Stich": 9691,
      "##quenzen": 9692,
      "Schwellung": 9693,
      "Zeitraum": 9694,
      "##speich": 9695,
      "gene": 9696,
      "##kommen": 9697,
      "BI": 9698,
      "Wandverdickung": 9699,
      "197": 9700,
      "##ysteme": 9701,
      "Pul": 9702,
      "Wasser": 9703,
      "##ipp": 9704,
      "großer": 9705,
      "Radio": 9706,
      "Einnahme": 9707,
      "Biopsie": 9708,
      "multiplen": 9709,
      "positiven": 9710,
      "fal": 9711,
      "Befundänderung": 9712,
      "nahezu": 9713,
      "Prävalenz": 9714,
      "Angst": 9715,
      "Wesentlichen": 9716,
      "##zende": 9717,
      "postoperative": 9718,
      "##arch": 9719,
      "##üfte": 9720,
      "niedrig": 9721,
      "Freie": 9722,
      "axillären": 9723,
      "##intest": 9724,
      "apikal": 9725,
      "positive": 9726,
      "Schwangerschaft": 9727,
      "Verband": 9728,
      "##RE": 9729,
      "kaum": 9730,
      "Antibio": 9731,
      "Liquorzirkulationsstörung": 9732,
      "Zunahme": 9733,
      "Xenetix": 9734,
      "##obas": 9735,
      "##fassung": 9736,
      "##rache": 9737,
      "##gänge": 9738,
      "ADC": 9739,
      "Koronar": 9740,
      "jeder": 9741,
      "mögliche": 9742,
      "VIBE": 9743,
      "##bo": 9744,
      "##person": 9745,
      "Punkt": 9746,
      "Verletzungen": 9747,
      "minim": 9748,
      "Ag": 9749,
      "##JI": 9750,
      "##ventrik": 9751,
      "Effekte": 9752,
      "wäre": 9753,
      "ganz": 9754,
      "##ritorial": 9755,
      "##gelenks": 9756,
      "sogar": 9757,
      "ergän": 9758,
      "##HO": 9759,
      "##atoren": 9760,
      "##zeptor": 9761,
      "Kortik": 9762,
      "##gehö": 9763,
      "ermittel": 9764,
      "##meth": 9765,
      "multiple": 9766,
      "dynam": 9767,
      "##haltung": 9768,
      "##lag": 9769,
      "##ühren": 9770,
      "##mehrung": 9771,
      "flau": 9772,
      "machen": 9773,
      "##rox": 9774,
      "Quad": 9775,
      "fast": 9776,
      "##drü": 9777,
      "##faktor": 9778,
      "Voruntersuchungen": 9779,
      "aufgetretene": 9780,
      "Mill": 9781,
      "Versuch": 9782,
      "##trauma": 9783,
      "##male": 9784,
      "Pil": 9785,
      "##einen": 9786,
      "Organe": 9787,
      "Neue": 9788,
      "Bew": 9789,
      "Gad": 9790,
      "Schichtung": 9791,
      "88": 9792,
      "ergab": 9793,
      "Definition": 9794,
      "##stabil": 9795,
      "Kindes": 9796,
      "Ultraschall": 9797,
      "Rück": 9798,
      "##okoll": 9799,
      "##zeilen": 9800,
      "eigenen": 9801,
      "##immt": 9802,
      "inneren": 9803,
      "Leistungs": 9804,
      "abgebildet": 9805,
      "##issektion": 9806,
      "Knochenstruktur": 9807,
      "##teten": 9808,
      "Dotarem": 9809,
      "größenkonst": 9810,
      "Lokalan": 9811,
      "##ismen": 9812,
      "FDG": 9813,
      "##TS": 9814,
      "Kollegen": 9815,
      "##cal": 9816,
      "beding": 9817,
      "Merk": 9818,
      "Qualitäts": 9819,
      "Mittelstrahl": 9820,
      "##tikel": 9821,
      "Deutlich": 9822,
      "VJI": 9823,
      "##uläre": 9824,
      "The": 9825,
      "##asche": 9826,
      "##gredienter": 9827,
      "##diagnos": 9828,
      "##juv": 9829,
      "##ochem": 9830,
      "Lungenparenchym": 9831,
      "ersch": 9832,
      "##NO": 9833,
      "Portsystem": 9834,
      "##itts": 9835,
      "Messung": 9836,
      "##anlage": 9837,
      "Ereig": 9838,
      "##oma": 9839,
      "ebenso": 9840,
      "Thoraxdrainage": 9841,
      "##embran": 9842,
      "Mehrzeilen": 9843,
      "Ass": 9844,
      "UL": 9845,
      "pektoral": 9846,
      "##ithiasis": 9847,
      "##cenden": 9848,
      "glob": 9849,
      "Substanz": 9850,
      "Uterus": 9851,
      "fam": 9852,
      "##act": 9853,
      "wichtige": 9854,
      "##blas": 9855,
      "arthri": 9856,
      "Bakterien": 9857,
      "einher": 9858,
      "##rieden": 9859,
      "to": 9860,
      "##äh": 9861,
      "##ptur": 9862,
      "##egt": 9863,
      "primär": 9864,
      "##odynam": 9865,
      "##iskatheter": 9866,
      "zahl": 9867,
      "Flüssigkeitsein": 9868,
      "denn": 9869,
      "Sul": 9870,
      "Liquoraufstau": 9871,
      "genau": 9872,
      "gemeinsam": 9873,
      "##zial": 9874,
      "Fer": 9875,
      "normale": 9876,
      "Termin": 9877,
      "optim": 9878,
      "86": 9879,
      "angrenzend": 9880,
      "Sigma": 9881,
      "##ukle": 9882,
      "Anforder": 9883,
      "Gang": 9884,
      "##gebenen": 9885,
      "##echterung": 9886,
      "##ierbar": 9887,
      "##altung": 9888,
      "Ero": 9889,
      "Gesellschaft": 9890,
      "Verein": 9891,
      "##leuse": 9892,
      "Zwischen": 9893,
      "HI": 9894,
      "##alli": 9895,
      "Kalotte": 9896,
      "weil": 9897,
      "##cendens": 9898,
      "bedeu": 9899,
      "##kulatur": 9900,
      "Einzelne": 9901,
      "Screening": 9902,
      "wesentlich": 9903,
      "ach": 9904,
      "Läsionen": 9905,
      "##orien": 9906,
      "##tiges": 9907,
      "##rator": 9908,
[...]
